UNK	0
▁t	-0
he	-1
▁a	-2
in	-3
▁the	-4
▁o	-5
re	-6
▁s	-7
▁w	-8
er	-9
on	-10
en	-11
at	-12
ou	-13
an	-14
▁b	-15
▁c	-16
it	-17
ed	-18
▁of	-19
ar	-20
▁f	-21
ing	-22
is	-23
▁m	-24
▁h	-25
es	-26
ll	-27
▁p	-28
▁d	-29
▁an	-30
▁to	-31
or	-32
▁in	-33
▁th	-34
▁l	-35
as	-36
ic	-37
▁n	-38
ly	-39
▁e	-40
le	-41
▁"	-42
▁and	-43
ro	-44
▁be	-45
ct	-46
ion	-47
st	-48
▁re	-49
▁g	-50
ve	-51
ent	-52
ut	-53
ad	-54
gh	-55
id	-56
ot	-57
ow	-58
ce	-59
▁it	-60
om	-61
se	-62
ver	-63
▁on	-64
ur	-65
ld	-66
▁he	-67
al	-68
▁T	-69
im	-70
▁as	-71
ri	-72
un	-73
ain	-74
et	-75
▁that	-76
ir	-77
▁M	-78
▁A	-79
▁B	-80
▁at	-81
▁we	-82
▁wh	-83
ra	-84
ect	-85
ould	-86
▁I	-87
ght	-88
ith	-89
ch	-90
▁st	-91
▁was	-92
▁for	-93
▁with	-94
▁y	-95
th	-96
▁The	-97
▁is	-98
▁not	-99
ay	-100
ore	-101
all	-102
us	-103
▁by	-104
oun	-105
▁_	-106
tain	-107
▁C	-108
ul	-109
ap	-110
!"	-111
▁ex	-112
▁con	-113
▁P	-114
her	-115
if	-116
ble	-117
▁sh	-118
ter	-119
▁you	-120
oon	-121
il	-122
▁his	-123
ight	-124
ican	-125
▁had	-126
arb	-127
▁se	-128
▁S	-129
ation	-130
qu	-131
ject	-132
▁su	-133
ess	-134
arbican	-135
▁or	-136
ich	-137
ke	-138
▁Barbican	-139
,"	-140
ast	-141
ill	-142
▁ha	-143
red	-144
▁Ar	-145
dan	-146
▁de	-147
▁they	-148
▁ne	-149
est	-150
▁Ardan	-151
ous	-152
▁all	-153
▁v	-154
rom	-155
ol	-156
▁Moon	-157
os	-158
um	-159
▁their	-160
▁dis	-161
am	-162
ds	-163
roject	-164
ile	-165
▁E	-166
very	-167
▁com	-168
ck	-169
▁from	-170
ers	-171
▁have	-172
res	-173
▁un	-174
."	-175
ate	-176
▁them	-177
▁Project	-178
ity	-179
el	-180
ant	-181
ust	-182
▁r	-183
▁H	-184
pp	-185
--	-186
▁al	-187
ough	-188
▁could	-189
lo	-190
▁this	-191
and	-192
▁but	-193
▁so	-194
▁W	-195
▁sp	-196
▁our	-197
up	-198
ven	-199
art	-200
our	-201
▁en	-202
ge	-203
out	-204
▁were	-205
▁fe	-206
▁pro	-207
ak	-208
▁li	-209
▁no	-210
▁which	-211
?"	-212
▁sa	-213
▁would	-214
▁Projectile	-215
ound	-216
▁its	-217
ace	-218
sel	-219
▁than	-220
oo	-221
reat	-222
der	-223
▁ab	-224
▁me	-225
ther	-226
▁can	-227
▁wor	-228
▁ob	-229
aptain	-230
▁F	-231
▁qu	-232
ome	-233
▁more	-234
oll	-235
are	-236
ive	-237
ong	-238
▁Captain	-239
ions	-240
able	-241
here	-242
ost	-243
ard	-244
em	-245
arth	-246
cc	-247
▁been	-248
ure	-249
▁N	-250
pl	-251
▁her	-252
▁are	-253
ab	-254
fore	-255
▁k	-256
▁Earth	-257
hen	-258
ide	-259
hat	-260
▁tim	-261
itt	-262
▁int	-263
▁now	-264
end	-265
▁there	-266
▁us	-267
_,	-268
▁great	-269
act	-270
▁one	-271
ried	-272
ally	-273
▁sur	-274
ort	-275
▁comp	-276
ull	-277
▁like	-278
ite	-279
▁po	-280
ind	-281
ved	-282
▁out	-283
ist	-284
ser	-285
▁j	-286
▁pl	-287
▁very	-288
▁im	-289
▁O	-290
ci	-291
▁G	-292
▁who	-293
▁L	-294
▁ch	-295
ig	-296
▁any	-297
▁even	-298
▁said	-299
hed	-300
▁ar	-301
▁le	-302
▁up	-303
ence	-304
▁only	-305
▁him	-306
▁1	-307
ked	-308
int	-309
▁do	-310
ance	-311
op	-312
▁per	-313
ac	-314
ell	-315
ie	-316
▁cried	-317
▁other	-318
ving	-319
▁app	-320
now	-321
▁tra	-322
▁time	-323
▁gl	-324
▁some	-325
ass	-326
ren	-327
ber	-328
ated	-329
hing	-330
▁what	-331
▁fri	-332
ittle	-333
▁cont	-334
ire	-335
▁about	-336
▁obser	-337
▁if	-338
ible	-339
self	-340
ach	-341
▁little	-342
pt	-343
Nich	-344
Nicholl	-345
ied	-346
la	-347
▁see	-348
▁ra	-349
▁D	-350
▁must	-351
▁pre	-352
▁dist	-353
ine	-354
▁ag	-355
unar	-356
per	-357
iles	-358
▁surf	-359
▁long	-360
▁when	-361
▁surface	-362
▁such	-363
▁point	-364
▁tw	-365
ered	-366
od	-367
ary	-368
▁It	-369
▁every	-370
ag	-371
ose	-372
ves	-373
▁In	-374
▁But	-375
▁man	-376
oss	-377
urn	-378
▁miles	-379
vell	-380
▁att	-381
ud	-382
▁ad	-383
▁tr	-384
ame	-385
ree	-386
ction	-387
▁know	-388
ake	-389
ily	-390
▁my	-391
▁still	-392
ff	-393
ations	-394
▁travell	-395
right	-396
ertain	-397
▁should	-398
cul	-399
ountain	-400
▁ey	-401
▁your	-402
ark	-403
one	-404
▁day	-405
▁how	-406
▁part	-407
ful	-408
▁over	-409
▁into	-410
▁pres	-411
ans	-412
con	-413
▁travellers	-414
esc	-415
uch	-416
wn	-417
▁light	-418
less	-419
ear	-420
ards	-421
ater	-422
ty	-423
ep	-424
▁most	-425
▁off	-426
▁too	-427
▁ever	-428
▁never	-429
og	-430
▁acc	-431
▁rem	-432
▁lunar	-433
ious	-434
▁Th	-435
ment	-436
▁fir	-437
▁disc	-438
▁these	-439
▁reg	-440
au	-441
▁gr	-442
▁str	-443
▁before	-444
▁mountain	-445
led	-446
way	-447
▁mom	-448
▁moment	-449
ies	-450
▁co	-451
▁sl	-452
▁say	-453
▁ter	-454
▁work	-455
▁being	-456
▁inter	-457
ling	-458
velo	-459
ely	-460
iff	-461
▁cr	-462
▁ro	-463
ident	-464
▁last	-465
▁much	-466
▁under	-467
▁few	-468
▁thr	-469
ne	-470
▁has	-471
▁rep	-472
▁res	-473
▁cons	-474
▁bec	-475
▁inst	-476
▁poss	-477
ink	-478
ood	-479
ted	-480
▁exc	-481
▁Sun	-482
▁through	-483
▁loo	-484
ron	-485
▁asked	-486
▁R	-487
ness	-488
▁They	-489
▁will	-490
▁first	-491
ub	-492
ying	-493
▁repl	-494
ared	-495
ense	-496
ully	-497
fter	-498
ress	-499
▁two	-500
phere	-501
▁form	-502
iz	-503
ends	-504
ating	-505
▁read	-506
▁soon	-507
▁enough	-508
av	-509
ph	-510
▁mo	-511
ount	-512
▁hour	-513
▁certain	-514
ature	-515
▁present	-516
ens	-517
ever	-518
▁dire	-519
00	-520
ys	-521
icul	-522
▁diff	-523
▁pe	-524
arly	-525
ided	-526
▁cal	-527
▁replied	-528
ade	-529
ang	-530
ical	-531
▁far	-532
wards	-533
▁He	-534
uten	-535
▁exp	-536
▁hard	-537
ced	-538
▁eas	-539
▁nor	-540
▁though	-541
we	-542
▁she	-543
▁2	-544
ice	-545
man	-546
ning	-547
rest	-548
selves	-549
▁contin	-550
ip	-551
ting	-552
▁imp	-553
▁This	-554
▁observed	-555
▁bet	-556
▁where	-557
The	-558
▁TH	-559
▁may	-560
veloc	-561
▁veloc	-562
cl	-563
ably	-564
▁bot	-565
ourse	-566
▁friends	-567
▁velocity	-568
▁Y	-569
ise	-570
ific	-571
▁min	-572
▁ref	-573
▁then	-574
▁well	-575
▁again	-576
▁fl	-577
berg	-578
▁therefore	-579
ish	-580
rib	-581
▁br	-582
▁course	-583
ue	-584
orm	-585
▁after	-586
▁secon	-587
sw	-588
▁perf	-589
utenberg	-590
ry	-591
▁fall	-592
▁just	-593
▁quest	-594
ath	-595
ces	-596
mos	-597
ston	-598
▁beg	-599
▁dec	-600
aking	-601
▁right	-602
▁hardly	-603
▁himself	-604
ase	-605
▁ke	-606
▁sm	-607
read	-608
▁dep	-609
atter	-610
thing	-611
▁eyes	-612
▁once	-613
▁atmos	-614
igh	-615
ord	-616
eter	-617
▁ext	-618
▁care	-619
--"	-620
ick	-621
▁night	-622
▁those	-623
ory	-624
▁Mar	-625
▁occ	-626
▁Gutenberg	-627
ail	-628
▁What	-629
▁answ	-630
▁start	-631
▁compan	-632
▁nothing	-633
▁without	-634
ft	-635
age	-636
▁imm	-637
ought	-638
▁made	-639
▁shall	-640
▁atmosphere	-641
az	-642
und	-643
atch	-644
ings	-645
lect	-646
▁THE	-647
▁air	-648
▁ind	-649
▁sub	-650
▁attra	-651
▁around	-652
▁calcul	-653
alf	-654
oub	-655
▁bo	-656
▁fact	-657
▁friend	-658
imp	-659
▁don	-660
ished	-661
▁feet	-662
▁sc	-663
ually	-664
▁quite	-665
▁distance	-666
own	-667
the	-668
▁get	-669
other	-670
▁side	-671
▁Marston	-672
nd	-673
ars	-674
ors	-675
row	-676
▁St	-677
ower	-678
▁bla	-679
▁ent	-680
fully	-681
▁turn	-682
▁however	-683
ib	-684
ign	-685
ows	-686
▁di	-687
eren	-688
king	-689
tern	-690
▁men	-691
rench	-692
▁cent	-693
▁dark	-694
▁minut	-695
▁think	-696
▁mountains	-697
dd	-698
app	-699
▁abs	-700
▁slight	-701
so	-702
ains	-703
▁least	-704
▁direct	-705
▁perfect	-706
ack	-707
let	-708
▁At	-709
▁cl	-710
▁inf	-711
▁own	-712
▁spe	-713
▁same	-714
▁might	-715
▁French	-716
▁towards	-717
▁themselves	-718
▁go	-719
reak	-720
▁did	-721
▁end	-722
▁inc	-723
▁half	-724
▁water	-725
▁question	-726
▁companions	-727
iet	-728
▁bl	-729
ither	-730
▁good	-731
▁three	-732
ock	-733
▁am	-734
▁em	-735
ange	-736
most	-737
▁inv	-738
▁lif	-739
▁seen	-740
hy	-741
▁J	-742
ave	-743
ason	-744
itud	-745
▁ast	-746
▁cur	-747
▁des	-748
ately	-749
▁thous	-750
▁decided	-751
ued	-752
▁la	-753
imed	-754
▁cle	-755
▁new	-756
▁won	-757
cient	-758
otion	-759
ronom	-760
▁exact	-761
▁minutes	-762
ER	-763
▁No	-764
ider	-765
▁call	-766
▁take	-767
▁possible	-768
rup	-769
▁We	-770
ands	-771
dden	-772
idly	-773
ited	-774
▁down	-775
▁head	-776
▁having	-777
pr	-778
▁bod	-779
▁old	-780
▁rec	-781
▁foll	-782
▁pass	-783
▁matter	-784
▁second	-785
▁sudden	-786
ms	-787
ope	-788
ause	-789
▁alt	-790
▁sol	-791
▁way	-792
ently	-793
ition	-794
▁exce	-795
▁heat	-796
▁easily	-797
▁observ	-798
▁gi	-799
ined	-800
pect	-801
vers	-802
▁act	-803
isible	-804
du	-805
▁3	-806
000	-807
air	-808
▁ev	-809
What	-810
owed	-811
▁fur	-812
▁gra	-813
▁ide	-814
▁rap	-815
▁yet	-816
▁make	-817
▁hours	-818
▁thousand	-819
▁continued	-820
ged	-821
▁eye	-822
▁flo	-823
▁doub	-824
▁prob	-825
▁There	-826
▁whole	-827
▁object	-828
ix	-829
edi	-830
ove	-831
ten	-832
▁op	-833
ways	-834
ween	-835
▁eff	-836
▁tem	-837
itude	-838
▁also	-839
▁less	-840
▁seem	-841
▁supp	-842
▁times	-843
▁always	-844
▁reason	-845
tm	-846
▁U	-847
ict	-848
ides	-849
▁adv	-850
▁det	-851
▁comm	-852
▁each	-853
▁high	-854
▁tell	-855
▁space	-856
▁consider	-857
It	-858
ual	-859
ult	-860
aken	-861
ener	-862
▁vol	-863
atell	-864
ather	-865
ility	-866
ready	-867
▁wind	-868
undred	-869
▁means	-870
▁world	-871
aps	-872
ets	-873
▁ste	-874
▁idea	-875
▁left	-876
▁reach	-877
▁regard	-878
▁already	-879
▁between	-880
▁complet	-881
▁hundred	-882
▁4	-883
mit	-884
▁If	-885
,000	-886
elen	-887
▁par	-888
▁ret	-889
▁back	-890
▁mean	-891
▁rest	-892
▁shad	-893
▁found	-894
▁reply	-895
▁almost	-896
▁instant	-897
▁differen	-898
▁certainly	-899
anc	-900
hab	-901
ial	-902
iss	-903
▁Se	-904
ents	-905
▁met	-906
▁away	-907
▁desc	-908
▁here	-909
▁vast	-910
▁become	-911
▁answered	-912
_.	-913
te	-914
▁(	-915
ild	-916
▁To	-917
fast	-918
ether	-919
▁char	-920
▁kind	-921
▁simp	-922
laimed	-923
▁appro	-924
▁glass	-925
▁motion	-926
▁nature	-927
▁interrup	-928
▁suddenly	-929
mer	-930
ral	-931
Mare	-932
▁bel	-933
▁cir	-934
zling	-935
▁full	-936
▁many	-937
▁black	-938
▁doubt	-939
▁quiet	-940
▁scient	-941
▁another	-942
▁subject	-943
▁attraction	-944
iv	-945
ks	-946
adi	-947
old	-948
▁pr	-949
atis	-950
ened	-951
lock	-952
omet	-953
osed	-954
raph	-955
ures	-956
ative	-957
eared	-958
▁dear	-959
▁done	-960
▁began	-961
▁exist	-962
▁itself	-963
▁looked	-964
▁wonder	-965
atellite	-966
▁Frenchman	-967
use	-968
▁vo	-969
outh	-970
▁hum	-971
elesc	-972
▁bott	-973
▁fore	-974
▁hand	-975
▁year	-976
restri	-977
▁Selen	-978
▁north	-979
▁thing	-980
▁astronom	-981
▁carefully	-982
aut	-983
rem	-984
▁ac	-985
▁ph	-986
▁let	-987
▁mor	-988
aring	-989
▁disp	-990
▁life	-991
▁power	-992
▁called	-993
ex	-994
oy	-995
▁V	-996
ian	-997
ond	-998
▁sk	-999
olut	-1000
what	-1001
▁set	-1002
▁able	-1003
▁rays	-1004
idently	-1005
restrial	-1006
▁exclaimed	-1007
Well	-1008
avor	-1009
▁sil	-1010
▁conf	-1011
▁keep	-1012
▁difficul	-1013
▁slightest	-1014
hes	-1015
les	-1016
▁Cl	-1017
ates	-1018
▁car	-1019
▁deg	-1020
aters	-1021
▁days	-1022
▁give	-1023
▁jour	-1024
▁elect	-1025
▁inhab	-1026
▁exactly	-1027
▁probably	-1028
▁terrestrial	-1029
li	-1030
You	-1031
ann	-1032
ney	-1033
▁As	-1034
ured	-1035
▁Not	-1036
▁mid	-1037
ected	-1038
ement	-1039
▁expl	-1040
▁prov	-1041
▁count	-1042
▁nearly	-1043
▁greater	-1044
▁rapidly	-1045
▁completely	-1046
ps	-1047
ru	-1048
▁5	-1049
lic	-1050
rew	-1051
rig	-1052
ury	-1053
cess	-1054
sequ	-1055
▁cor	-1056
▁equ	-1057
▁ill	-1058
owing	-1059
uring	-1060
▁both	-1061
▁four	-1062
▁radi	-1063
▁depth	-1064
▁appear	-1065
▁temper	-1066
▁further	-1067
▁morning	-1068
▁thought	-1069
cks	-1070
ene	-1071
▁wr	-1072
fact	-1073
rill	-1074
that	-1075
ular	-1076
▁cop	-1077
▁ple	-1078
stand	-1079
▁case	-1080
▁near	-1081
▁altog	-1082
▁favor	-1083
▁crater	-1084
▁rather	-1085
▁telesc	-1086
▁journey	-1087
▁regarding	-1088
▁altogether	-1089
arp	-1090
but	-1091
que	-1092
▁1.	-1093
▁lo	-1094
▁ut	-1095
enty	-1096
ites	-1097
umin	-1098
▁You	-1099
▁che	-1100
▁gas	-1101
▁ins	-1102
▁sum	-1103
ached	-1104
ering	-1105
▁Club	-1106
▁find	-1107
▁prec	-1108
▁thir	-1109
▁order	-1110
▁sound	-1111
▁bright	-1112
▁centre	-1113
▁quietly	-1114
ON	-1115
mb	-1116
Yes	-1117
elt	-1118
iew	-1119
ret	-1120
That	-1121
▁How	-1122
▁add	-1123
▁ass	-1124
▁daz	-1125
▁num	-1126
cious	-1127
clock	-1128
▁come	-1129
▁peak	-1130
▁often	-1131
▁immedi	-1132
▁express	-1133
▁anything	-1134
ew	-1135
alt	-1136
ief	-1137
not	-1138
cean	-1139
▁His	-1140
▁rel	-1141
ingly	-1142
ribut	-1143
▁Then	-1144
▁rece	-1145
▁view	-1146
▁gener	-1147
▁small	-1148
▁somet	-1149
▁either	-1150
▁longer	-1151
▁dazzling	-1152
▁evidently	-1153
ape	-1154
can	-1155
ici	-1156
ier	-1157
oud	-1158
ric	-1159
ants	-1160
ired	-1161
▁fam	-1162
▁glo	-1163
▁lay	-1164
▁opp	-1165
▁ser	-1166
▁spl	-1167
ccess	-1168
▁body	-1169
▁inte	-1170
▁line	-1171
▁prof	-1172
atever	-1173
▁heart	-1174
▁terri	-1175
▁whose	-1176
▁weight	-1177
▁interrupted	-1178
ug	-1179
get	-1180
ior	-1181
ook	-1182
umb	-1183
ibly	-1184
▁Bel	-1185
▁law	-1186
inary	-1187
ouble	-1188
▁port	-1189
▁pret	-1190
▁Lunar	-1191
▁heard	-1192
▁human	-1193
▁occas	-1194
▁taken	-1195
▁works	-1196
▁bottom	-1197
▁within	-1198
▁approach	-1199
▁interest	-1200
▁whatever	-1201
▁temperature	-1202
No	-1203
ia	-1204
ons	-1205
omen	-1206
▁bol	-1207
▁pos	-1208
▁tal	-1209
▁ten	-1210
▁why	-1211
asure	-1212
▁felt	-1213
▁move	-1214
▁prev	-1215
▁suff	-1216
▁took	-1217
▁west	-1218
ically	-1219
▁break	-1220
▁place	-1221
▁absolut	-1222
▁consequ	-1223
▁inhabit	-1224
▁success	-1225
We	-1226
But	-1227
arn	-1228
uck	-1229
▁"_	-1230
▁Ch	-1231
▁Un	-1232
aris	-1233
ised	-1234
rees	-1235
rown	-1236
▁dim	-1237
▁gaz	-1238
▁mag	-1239
▁six	-1240
▁sun	-1241
ments	-1242
▁sing	-1243
▁contr	-1244
▁lying	-1245
▁satis	-1246
▁short	-1247
▁surpr	-1248
▁famous	-1249
▁necess	-1250
▁remark	-1251
▁readily	-1252
▁actually	-1253
▁decidedly	-1254
▁perfectly	-1255
▁everything	-1256
IT	-1257
OR	-1258
br	-1259
sh	-1260
Not	-1261
ael	-1262
arm	-1263
gen	-1264
▁An	-1265
▁OF	-1266
▁sw	-1267
▁map	-1268
▁put	-1269
▁best	-1270
▁conc	-1271
▁diam	-1272
▁fire	-1273
▁hear	-1274
▁lost	-1275
▁real	-1276
▁reve	-1277
▁sign	-1278
▁spot	-1279
▁want	-1280
▁fully	-1281
▁grand	-1282
▁produ	-1283
▁state	-1284
▁plains	-1285
▁return	-1286
▁account	-1287
▁craters	-1288
▁project	-1289
▁terrible	-1290
▁observations	-1291
AR	-1292
IN	-1293
xt	-1294
cho	-1295
iol	-1296
omp	-1297
arer	-1298
haps	-1299
ract	-1300
rect	-1301
▁For	-1302
▁Pro	-1303
▁cra	-1304
▁saw	-1305
ortun	-1306
▁cold	-1307
▁face	-1308
▁free	-1309
▁land	-1310
▁ring	-1311
▁viol	-1312
ording	-1313
tering	-1314
▁clear	-1315
▁going	-1316
▁worth	-1317
▁moving	-1318
▁shadow	-1319
▁strong	-1320
▁turned	-1321
▁Belfast	-1322
▁against	-1323
▁appeared	-1324
▁particul	-1325
▁different	-1326
▁understand	-1327
gl	-1328
ss	-1329
ize	-1330
oot	-1331
uss	-1332
▁On	-1333
▁bu	-1334
▁sy	-1335
ceed	-1336
cept	-1337
▁hel	-1338
▁lau	-1339
▁orb	-1340
▁squ	-1341
▁tri	-1342
ended	-1343
light	-1344
▁Mich	-1345
▁circ	-1346
▁dead	-1347
▁poor	-1348
▁prep	-1349
▁prop	-1350
▁slow	-1351
tained	-1352
▁known	-1353
▁years	-1354
▁during	-1355
▁effect	-1356
▁height	-1357
▁window	-1358
▁Michael	-1359
▁somewhat	-1360
▁direction	-1361
AP	-1362
EN	-1363
ho	-1364
pe	-1365
ern	-1366
oms	-1367
▁De	-1368
ians	-1369
▁All	-1370
▁And	-1371
▁dra	-1372
▁ord	-1373
veral	-1374
▁Amer	-1375
▁anim	-1376
▁feel	-1377
▁fell	-1378
▁magn	-1379
▁peri	-1380
▁requ	-1381
▁solar	-1382
▁voice	-1383
▁better	-1384
▁others	-1385
▁splend	-1386
▁describ	-1387
▁immense	-1388
▁several	-1389
▁suffici	-1390
▁astronomers	-1391
be	-1392
▁X	-1393
als	-1394
ime	-1395
men	-1396
▁En	-1397
▁ir	-1398
ingu	-1399
mber	-1400
ream	-1401
▁col	-1402
▁fin	-1403
ained	-1404
ening	-1405
ublic	-1406
utral	-1407
▁bene	-1408
▁deep	-1409
▁fast	-1410
▁five	-1411
▁kept	-1412
▁look	-1413
▁next	-1414
▁phen	-1415
▁plan	-1416
ormous	-1417
▁shock	-1418
▁south	-1419
▁while	-1420
▁really	-1421
▁streak	-1422
▁summit	-1423
▁neutral	-1424
▁visible	-1425
▁diameter	-1426
▁phenomen	-1427
▁immediately	-1428
OU	-1429
Oh	-1430
And	-1431
TER	-1432
ins	-1433
its	-1434
mis	-1435
ple	-1436
▁Be	-1437
▁Do	-1438
clud	-1439
idge	-1440
part	-1441
ross	-1442
▁--"	-1443
▁adm	-1444
▁use	-1445
▁ver	-1446
ities	-1447
▁exam	-1448
▁grav	-1449
▁inde	-1450
▁infl	-1451
▁sens	-1452
▁wall	-1453
▁word	-1454
cience	-1455
ternal	-1456
▁floor	-1457
▁plain	-1458
▁quick	-1459
▁words	-1460
ination	-1461
▁disapp	-1462
▁extrem	-1463
▁passed	-1464
▁pretty	-1465
▁seemed	-1466
▁volcan	-1467
resident	-1468
▁attract	-1469
▁degrees	-1470
▁looking	-1471
▁strange	-1472
▁electron	-1473
▁enormous	-1474
▁occasion	-1475
▁Therefore	-1476
▁existence	-1477
▁invisible	-1478
▁something	-1479
AT	-1480
How	-1481
Sus	-1482
att	-1483
ele	-1484
new	-1485
ony	-1486
▁hy	-1487
aces	-1488
anna	-1489
ines	-1490
ople	-1491
over	-1492
pped	-1493
queh	-1494
used	-1495
▁arg	-1496
▁fif	-1497
▁pur	-1498
▁sky	-1499
entle	-1500
▁ball	-1501
▁bull	-1502
▁cool	-1503
▁coun	-1504
▁does	-1505
▁east	-1506
esides	-1507
▁begin	-1508
▁const	-1509
▁given	-1510
▁hemis	-1511
▁occup	-1512
▁ready	-1513
▁sharp	-1514
Susqueh	-1515
▁depths	-1516
▁detail	-1517
▁making	-1518
▁reflect	-1519
▁distingu	-1520
▁Selenites	-1521
▁satisfact	-1522
Susquehanna	-1523
▁calculated	-1524
▁scientific	-1525
AN	-1526
ED	-1527
He	-1528
LL	-1529
ah	-1530
co	-1531
▁'	-1532
gth	-1533
iar	-1534
ton	-1535
ume	-1536
arge	-1537
atur	-1538
empt	-1539
ists	-1540
ustr	-1541
▁ann	-1542
▁esc	-1543
▁hor	-1544
▁low	-1545
▁unt	-1546
ances	-1547
antic	-1548
▁Even	-1549
▁arri	-1550
▁came	-1551
▁dang	-1552
▁list	-1553
▁main	-1554
▁rock	-1555
▁These	-1556
▁catch	-1557
▁exper	-1558
▁hands	-1559
▁exceed	-1560
▁twenty	-1561
▁because	-1562
▁possess	-1563
▁respect	-1564
▁seconds	-1565
▁directly	-1566
▁necessary	-1567
▁satellite	-1568
▁wonderful	-1569
▁electronic	-1570
ts	-1571
HAP	-1572
bed	-1573
ead	-1574
ont	-1575
▁By	-1576
▁el	-1577
▁ox	-1578
ched	-1579
ince	-1580
lose	-1581
▁Sea	-1582
▁aff	-1583
▁bur	-1584
▁bus	-1585
▁cap	-1586
▁hig	-1587
▁lat	-1588
altim	-1589
night	-1590
osing	-1591
ounds	-1592
rilli	-1593
where	-1594
▁CHAP	-1595
▁gave	-1596
▁grad	-1597
▁help	-1598
▁stri	-1599
ention	-1600
▁excit	-1601
▁sight	-1602
▁trans	-1603
▁usual	-1604
▁brilli	-1605
▁result	-1606
▁simple	-1607
▁taking	-1608
altimore	-1609
▁CHAPTER	-1610
▁beneath	-1611
▁falling	-1612
▁reached	-1613
▁trouble	-1614
▁darkness	-1615
ES	-1616
Why	-1617
rum	-1618
ung	-1619
upp	-1620
▁Fr	-1621
▁gu	-1622
aint	-1623
akes	-1624
aren	-1625
iter	-1626
ived	-1627
▁Col	-1628
▁mon	-1629
▁ris	-1630
▁saf	-1631
▁var	-1632
round	-1633
▁That	-1634
▁conv	-1635
▁fort	-1636
▁hope	-1637
▁open	-1638
▁sure	-1639
▁went	-1640
▁wild	-1641
ograph	-1642
▁influ	-1643
▁bodies	-1644
▁gentle	-1645
▁indeed	-1646
▁intell	-1647
▁slowly	-1648
▁portion	-1649
▁streaks	-1650
▁difficult	-1651
▁distribut	-1652
▁favorable	-1653
▁presented	-1654
▁telescope	-1655
▁motionless	-1656
▁sufficient	-1657
ec	-1658
of	-1659
hil	-1660
hus	-1661
ics	-1662
ler	-1663
rah	-1664
▁aw	-1665
cing	-1666
clip	-1667
husi	-1668
ized	-1669
side	-1670
ygen	-1671
▁emp	-1672
▁sit	-1673
ashed	-1674
aving	-1675
illed	-1676
iment	-1677
urrah	-1678
velop	-1679
▁Dece	-1680
▁blaz	-1681
▁burn	-1682
▁copy	-1683
▁mind	-1684
itting	-1685
▁Found	-1686
▁breat	-1687
▁close	-1688
▁eclip	-1689
▁peaks	-1690
▁pecul	-1691
▁stand	-1692
▁tried	-1693
▁until	-1694
▁bullet	-1695
▁circum	-1696
▁reveal	-1697
▁things	-1698
▁brought	-1699
▁charact	-1700
▁country	-1701
▁enthusi	-1702
▁getting	-1703
▁gravity	-1704
▁intense	-1705
▁perhaps	-1706
▁regular	-1707
▁expected	-1708
▁Baltimore	-1709
▁President	-1710
▁Foundation	-1711
▁hemisphere	-1712
▁approaching	-1713
▁observation	-1714
In	-1715
ND	-1716
Let	-1717
ium	-1718
▁10	-1719
▁Of	-1720
ased	-1721
tion	-1722
▁Gun	-1723
▁New	-1724
▁ago	-1725
▁est	-1726
▁pen	-1727
▁und	-1728
asses	-1729
ision	-1730
ously	-1731
▁cond	-1732
▁imag	-1733
▁need	-1734
▁prom	-1735
▁sent	-1736
▁true	-1737
acific	-1738
ection	-1739
ending	-1740
enture	-1741
itable	-1742
▁argum	-1743
▁globe	-1744
▁posit	-1745
▁terms	-1746
ability	-1747
▁answer	-1748
▁danger	-1749
▁number	-1750
▁oxygen	-1751
▁seeing	-1752
▁simply	-1753
▁single	-1754
▁illumin	-1755
▁started	-1756
ustration	-1757
▁December	-1758
▁peculiar	-1759
▁beginning	-1760
▁following	-1761
▁absolutely	-1762
!_	-1763
AL	-1764
sc	-1765
▁z	-1766
Ill	-1767
ale	-1768
asm	-1769
ati	-1770
vel	-1771
▁18	-1772
▁ve	-1773
atus	-1774
aven	-1775
ield	-1776
teen	-1777
umed	-1778
ward	-1779
▁Now	-1780
▁Was	-1781
▁beh	-1782
▁bra	-1783
▁cut	-1784
▁dev	-1785
▁hot	-1786
▁whe	-1787
allel	-1788
arent	-1789
aster	-1790
inion	-1791
ption	-1792
▁agre	-1793
▁glit	-1794
▁mill	-1795
▁show	-1796
▁upon	-1797
iously	-1798
ishing	-1799
▁Their	-1800
▁below	-1801
▁blind	-1802
▁curve	-1803
▁equal	-1804
▁ocean	-1805
▁watch	-1806
atively	-1807
▁became	-1808
▁myself	-1809
▁nearer	-1810
▁people	-1811
▁period	-1812
▁public	-1813
▁struck	-1814
▁attempt	-1815
▁counter	-1816
▁distant	-1817
▁forever	-1818
▁instrum	-1819
▁regions	-1820
▁silence	-1821
▁American	-1822
▁movement	-1823
▁positive	-1824
▁powerful	-1825
▁brilliant	-1826
▁character	-1827
▁directions	-1828
Illustration	-1829
AC	-1830
IS	-1831
cy	-1832
amp	-1833
ank	-1834
ero	-1835
ery	-1836
ner	-1837
▁15	-1838
▁20	-1839
▁Mr	-1840
▁jo	-1841
ging	-1842
hern	-1843
▁Had	-1844
▁San	-1845
▁eng	-1846
▁lab	-1847
▁ram	-1848
iness	-1849
isely	-1850
rigin	-1851
▁mete	-1852
▁name	-1853
▁oper	-1854
▁path	-1855
▁rate	-1856
▁star	-1857
▁till	-1858
▁belie	-1859
▁force	-1860
▁glimp	-1861
▁large	-1862
▁press	-1863
▁stars	-1864
ibility	-1865
outhern	-1866
▁bolide	-1867
▁cannot	-1868
▁daring	-1869
▁origin	-1870
▁square	-1871
▁trying	-1872
▁Pacific	-1873
▁opinion	-1874
▁outside	-1875
▁apparent	-1876
▁greatest	-1877
▁instance	-1878
▁ordinary	-1879
▁profound	-1880
▁gradually	-1881
▁ourselves	-1882
▁difference	-1883
▁difficulty	-1884
▁glittering	-1885
ey	-1886
▁*	-1887
▁-	-1888
iad	-1889
ken	-1890
mat	-1891
org	-1892
orn	-1893
you	-1894
▁12	-1895
bury	-1896
eleg	-1897
inci	-1898
isco	-1899
ored	-1900
ruct	-1901
stem	-1902
▁Blo	-1903
▁asc	-1904
▁dri	-1905
▁gig	-1906
▁gun	-1907
▁len	-1908
▁lim	-1909
▁pit	-1910
▁ren	-1911
▁rid	-1912
▁spo	-1913
▁win	-1914
ified	-1915
iling	-1916
izing	-1917
ledge	-1918
tered	-1919
thern	-1920
▁With	-1921
▁boys	-1922
▁dest	-1923
▁ears	-1924
▁easy	-1925
▁post	-1926
▁situ	-1927
▁stra	-1928
▁tone	-1929
idered	-1930
▁asser	-1931
▁burst	-1932
▁emplo	-1933
▁incre	-1934
▁natur	-1935
▁orbit	-1936
▁thick	-1937
▁white	-1938
omsbury	-1939
▁States	-1940
▁formed	-1941
▁import	-1942
▁length	-1943
▁points	-1944
▁princi	-1945
▁remind	-1946
▁saying	-1947
▁system	-1948
▁worthy	-1949
Barbican	-1950
ertainly	-1951
▁correct	-1952
▁discuss	-1953
▁evening	-1954
▁neither	-1955
▁objects	-1956
▁circumst	-1957
▁contrary	-1958
▁dispatch	-1959
▁interior	-1960
▁parallel	-1961
▁according	-1962
▁Bloomsbury	-1963
▁considered	-1964
▁excitement	-1965
▁phenomenon	-1966
▁consequence	-1967
▁exceedingly	-1968
Ar	-1969
ax	-1970
▁8	-1971
day	-1972
hel	-1973
ius	-1974
ump	-1975
uth	-1976
▁fo	-1977
opes	-1978
ster	-1979
yond	-1980
▁Our	-1981
▁got	-1982
▁mod	-1983
▁mut	-1984
▁pie	-1985
▁rev	-1986
▁run	-1987
▁sea	-1988
▁swe	-1989
arter	-1990
ences	-1991
ented	-1992
essor	-1993
eterm	-1994
▁coll	-1995
▁comb	-1996
▁hast	-1997
▁init	-1998
▁knew	-1999
▁meet	-2000
iction	-2001
umbiad	-2002
▁Every	-2003
▁absor	-2004
▁added	-2005
▁enter	-2006
▁learn	-2007
▁lower	-2008
▁remem	-2009
▁round	-2010
▁shape	-2011
▁sides	-2012
▁steam	-2013
▁throw	-2014
▁wrong	-2015
▁advant	-2016
▁effort	-2017
▁proble	-2018
▁details	-2019
▁general	-2020
▁external	-2021
▁floating	-2022
▁followed	-2023
▁latitude	-2024
▁possibly	-2025
▁provided	-2026
▁Satellite	-2027
▁particular	-2028
;"	-2029
II	-2030
Th	-2031
rs	-2032
▁7	-2033
▁K	-2034
ING	-2035
ify	-2036
son	-2037
yed	-2038
▁Pe	-2039
▁ho	-2040
▁pu	-2041
ages	-2042
bing	-2043
cret	-2044
ompl	-2045
reen	-2046
road	-2047
semb	-2048
▁Why	-2049
▁arr	-2050
▁def	-2051
▁enc	-2052
▁enj	-2053
▁joy	-2054
▁mer	-2055
cular	-2056
itted	-2057
lying	-2058
parts	-2059
rehen	-2060
▁happ	-2061
▁pair	-2062
▁pers	-2063
▁pole	-2064
▁talk	-2065
▁vert	-2066
itions	-2067
orious	-2068
▁becom	-2069
▁bound	-2070
▁cause	-2071
▁conce	-2072
▁forth	-2073
▁glare	-2074
▁occur	-2075
▁sense	-2076
▁United	-2077
▁action	-2078
▁beyond	-2079
▁determ	-2080
▁fortun	-2081
▁fright	-2082
▁glance	-2083
▁highly	-2084
▁render	-2085
▁showed	-2086
▁theory	-2087
▁capable	-2088
▁excited	-2089
▁glimpse	-2090
▁initial	-2091
▁instead	-2092
▁rockets	-2093
▁altitude	-2094
▁comparis	-2095
▁magnific	-2096
▁midnight	-2097
▁northern	-2098
▁opportun	-2099
▁produced	-2100
▁ramparts	-2101
▁southern	-2102
▁surprise	-2103
▁surround	-2104
▁Columbiad	-2105
▁agreement	-2106
▁questions	-2107
▁scientists	-2108
▁inhabitants	-2109
TI	-2110
ee	-2111
gg	-2112
go	-2113
▁6	-2114
_!"	-2115
any	-2116
ola	-2117
ork	-2118
rop	-2119
ror	-2120
▁30	-2121
▁So	-2122
▁ca	-2123
▁ed	-2124
▁er	-2125
▁fr	-2126
They	-2127
ambr	-2128
arch	-2129
oint	-2130
ouse	-2131
▁Its	-2132
▁Let	-2133
▁ang	-2134
usion	-2135
▁firm	-2136
▁laid	-2137
▁lies	-2138
▁loud	-2139
▁mile	-2140
▁pull	-2141
▁rise	-2142
▁shot	-2143
▁thus	-2144
▁trem	-2145
▁vain	-2146
ceeded	-2147
erable	-2148
estern	-2149
▁Cambr	-2150
▁along	-2151
▁appar	-2152
▁death	-2153
▁dimin	-2154
▁earth	-2155
▁eight	-2156
▁extra	-2157
▁faint	-2158
▁month	-2159
▁plate	-2160
▁super	-2161
▁teleg	-2162
▁yards	-2163
▁change	-2164
▁commun	-2165
▁forget	-2166
▁heaven	-2167
▁imposs	-2168
▁latter	-2169
▁partic	-2170
▁report	-2171
▁thirty	-2172
▁careful	-2173
▁glasses	-2174
▁turning	-2175
▁discover	-2176
▁starting	-2177
▁Cambridge	-2178
▁influence	-2179
▁precisely	-2180
▁counteract	-2181
▁telescopes	-2182
▁disappeared	-2183
▁opportunity	-2184
An	-2185
LE	-2186
RE	-2187
Ty	-2188
bod	-2189
par	-2190
▁13	-2191
ator	-2192
ghed	-2193
head	-2194
iled	-2195
ilus	-2196
ires	-2197
leep	-2198
oura	-2199
▁Nor	-2200
▁art	-2201
▁bar	-2202
▁bit	-2203
▁bro	-2204
▁den	-2205
▁dog	-2206
▁due	-2207
▁loc	-2208
▁nam	-2209
▁puz	-2210
▁rig	-2211
▁suc	-2212
▁viv	-2213
Tycho	-2214
iding	-2215
prise	-2216
▁Engl	-2217
▁Hill	-2218
▁Long	-2219
▁When	-2220
▁calm	-2221
▁cast	-2222
▁city	-2223
▁desp	-2224
▁fate	-2225
▁grou	-2226
▁hold	-2227
▁laws	-2228
▁mere	-2229
▁miss	-2230
▁outl	-2231
▁past	-2232
▁pure	-2233
Hurrah	-2234
ounced	-2235
ressed	-2236
uppose	-2237
▁After	-2238
▁Franc	-2239
▁alive	-2240
▁allow	-2241
▁alone	-2242
▁compl	-2243
▁escap	-2244
▁fifty	-2245
▁laugh	-2246
▁notic	-2247
▁rapid	-2248
▁refle	-2249
▁seems	-2250
▁seven	-2251
▁steep	-2252
▁veget	-2253
▁walls	-2254
autilus	-2255
▁charge	-2256
▁compar	-2257
▁contem	-2258
▁detect	-2259
▁former	-2260
▁giving	-2261
▁intern	-2262
▁meteor	-2263
▁pounds	-2264
▁strict	-2265
▁volume	-2266
enturers	-2267
ountains	-2268
▁accompl	-2269
▁serious	-2270
▁volcano	-2271
▁whether	-2272
Certainly	-2273
▁gigantic	-2274
▁glorious	-2275
▁intellig	-2276
▁pleasure	-2277
▁pressure	-2278
▁straight	-2279
▁Francisco	-2280
▁apparatus	-2281
▁attention	-2282
▁comparison	-2283
▁adventurers	-2284
▁calculation	-2285
▁magnificent	-2286
▁circumstances	-2287
-1	-2288
To	-2289
no	-2290
to	-2291
Now	-2292
ava	-2293
bra	-2294
irm	-2295
ran	-2296
ula	-2297
ulf	-2298
▁Ma	-2299
▁TO	-2300
▁ri	-2301
▁wa	-2302
aged	-2303
athe	-2304
iana	-2305
iver	-2306
ring	-2307
seas	-2308
ship	-2309
umph	-2310
▁Mid	-2311
▁ack	-2312
▁div	-2313
▁fig	-2314
▁mar	-2315
▁pap	-2316
▁pow	-2317
▁red	-2318
▁sim	-2319
▁sto	-2320
atory	-2321
aught	-2322
enced	-2323
inite	-2324
isted	-2325
iting	-2326
order	-2327
▁Full	-2328
▁Here	-2329
▁Prof	-2330
▁Rock	-2331
▁arms	-2332
▁bear	-2333
▁crow	-2334
▁else	-2335
▁fail	-2336
▁fear	-2337
▁flat	-2338
▁iron	-2339
▁ship	-2340
▁sink	-2341
endous	-2342
idence	-2343
ometer	-2344
overed	-2345
pected	-2346
seless	-2347
▁Still	-2348
▁above	-2349
▁agree	-2350
▁brain	-2351
▁brave	-2352
▁later	-2353
▁midst	-2354
▁offic	-2355
▁pitch	-2356
▁shore	-2357
▁smile	-2358
▁spect	-2359
▁third	-2360
▁acknow	-2361
▁animal	-2362
▁degree	-2363
▁fellow	-2364
▁forces	-2365
▁higher	-2366
▁likely	-2367
▁planet	-2368
▁proper	-2369
▁proved	-2370
▁reader	-2371
▁remain	-2372
▁undert	-2373
▁Besides	-2374
▁English	-2375
▁believe	-2376
▁carried	-2377
▁conclud	-2378
▁convers	-2379
▁develop	-2380
▁herself	-2381
▁prevent	-2382
▁problem	-2383
▁proport	-2384
▁quarter	-2385
▁shadows	-2386
▁smaller	-2387
▁triumph	-2388
▁violent	-2389
▁Nautilus	-2390
▁communic	-2391
▁contempl	-2392
▁prepared	-2393
▁reaching	-2394
▁required	-2395
▁Professor	-2396
▁breakfast	-2397
▁calculate	-2398
▁gentlemen	-2399
▁important	-2400
▁instantly	-2401
▁surprised	-2402
▁enterprise	-2403
▁experiment	-2404
▁reflection	-2405
▁remarkable	-2406
▁tremendous	-2407
▁calculations	-2408
▁conversation	-2409
▁occasionally	-2410
),	-2411
.,	-2412
IC	-2413
ST	-2414
TH	-2415
by	-2416
ef	-2417
ob	-2418
uc	-2419
vo	-2420
!_"	-2421
acu	-2422
cil	-2423
ert	-2424
ica	-2425
mor	-2426
rob	-2427
ses	-2428
val	-2429
▁Al	-2430
adem	-2431
body	-2432
enth	-2433
iful	-2434
inct	-2435
ules	-2436
▁Did	-2437
▁boy	-2438
▁bre	-2439
▁fun	-2440
▁fut	-2441
▁pay	-2442
▁ves	-2443
▁vis	-2444
anged	-2445
antly	-2446
astic	-2447
duced	-2448
ested	-2449
estig	-2450
ining	-2451
overy	-2452
▁Arch	-2453
▁base	-2454
▁furn	-2455
▁heav	-2456
▁lava	-2457
▁live	-2458
▁mach	-2459
▁mort	-2460
▁nine	-2461
▁obst	-2462
▁ours	-2463
▁send	-2464
▁size	-2465
▁unex	-2466
▁vacu	-2467
entric	-2468
▁Brown	-2469
▁Diana	-2470
▁Great	-2471
▁among	-2472
▁enjoy	-2473
▁gloom	-2474
▁group	-2475
▁heads	-2476
▁horiz	-2477
▁lumin	-2478
▁names	-2479
▁numer	-2480
▁pract	-2481
▁access	-2482
▁caught	-2483
▁excell	-2484
▁except	-2485
▁includ	-2486
▁myster	-2487
▁resemb	-2488
▁unless	-2489
▁vessel	-2490
▁winter	-2491
ordinary	-2492
ormation	-2493
▁arrange	-2494
▁chronom	-2495
▁finally	-2496
▁laughed	-2497
▁learned	-2498
▁perform	-2499
▁quickly	-2500
▁talking	-2501
▁Brownson	-2502
▁electric	-2503
▁incident	-2504
▁internal	-2505
▁revealed	-2506
▁speaking	-2507
▁splendid	-2508
▁Mountains	-2509
▁extremely	-2510
▁generally	-2511
▁situation	-2512
▁expression	-2513
▁positively	-2514
▁projectile	-2515
▁attractions	-2516
▁distinguish	-2517
▁particularly	-2518
▁extraordinary	-2519
GH	-2520
RO	-2521
SE	-2522
UN	-2523
UT	-2524
na	-2525
tt	-2526
ald	-2527
ash	-2528
ats	-2529
ety	-2530
fty	-2531
got	-2532
how	-2533
isp	-2534
lor	-2535
ogn	-2536
pot	-2537
riv	-2538
▁25	-2539
▁Is	-2540
▁Ob	-2541
▁eB	-2542
ager	-2543
apor	-2544
cent	-2545
fort	-2546
hood	-2547
ices	-2548
icus	-2549
iest	-2550
miss	-2551
osop	-2552
oung	-2553
pend	-2554
perb	-2555
play	-2556
▁Con	-2557
▁cry	-2558
▁ell	-2559
▁hon	-2560
▁log	-2561
▁sel	-2562
▁sou	-2563
▁wit	-2564
There	-2565
alley	-2566
ching	-2567
edler	-2568
eless	-2569
elled	-2570
iform	-2571
inced	-2572
opern	-2573
osity	-2574
ushed	-2575
▁From	-2576
▁Peak	-2577
▁cove	-2578
▁doll	-2579
▁foot	-2580
▁grow	-2581
▁mass	-2582
▁news	-2583
▁prot	-2584
▁soft	-2585
▁trip	-2586
▁warm	-2587
▁whir	-2588
agraph	-2589
icense	-2590
ourage	-2591
ularly	-2592
▁Liter	-2593
▁beaut	-2594
▁color	-2595
▁disch	-2596
▁diver	-2597
▁ether	-2598
▁forty	-2599
▁guess	-2600
▁leave	-2601
▁lofty	-2602
▁parab	-2603
▁separ	-2604
▁since	-2605
▁sweet	-2606
▁utter	-2607
▁worse	-2608
athemat	-2609
shipman	-2610
▁accept	-2611
▁breath	-2612
▁follow	-2613
▁forgot	-2614
▁gazing	-2615
▁interp	-2616
▁listen	-2617
▁retard	-2618
▁silent	-2619
▁supply	-2620
▁vacuum	-2621
▁Archive	-2622
▁However	-2623
▁Nothing	-2624
▁Science	-2625
▁arrived	-2626
▁balloon	-2627
▁eastern	-2628
▁eclipse	-2629
▁measure	-2630
▁natural	-2631
▁reasons	-2632
▁suppose	-2633
▁uniform	-2634
▁witness	-2635
opernicus	-2636
▁Literary	-2637
▁Selenite	-2638
▁absolute	-2639
▁business	-2640
▁investig	-2641
▁luminous	-2642
▁position	-2643
▁remember	-2644
▁splendor	-2645
▁thinking	-2646
▁vertical	-2647
▁volcanic	-2648
▁condition	-2649
▁conscious	-2650
▁convinced	-2651
▁excellent	-2652
▁formation	-2653
▁paragraph	-2654
▁astronomer	-2655
▁continents	-2656
▁enthusiasm	-2657
▁mysterious	-2658
▁unexpected	-2659
▁considerably	-2660
▁comparatively	-2661
By	-2662
Do	-2663
IM	-2664
IR	-2665
LD	-2666
bo	-2667
rm	-2668
▁u	-2669
Don	-2670
For	-2671
_."	-2672
abl	-2673
add	-2674
aid	-2675
awn	-2676
bor	-2677
een	-2678
fer	-2679
rat	-2680
six	-2681
ush	-2682
ute	-2683
why	-2684
▁--	-2685
▁16	-2686
▁AR	-2687
▁ce	-2688
▁dr	-2689
acle	-2690
ctor	-2691
hest	-2692
hich	-2693
laim	-2694
ming	-2695
pher	-2696
reet	-2697
well	-2698
will	-2699
▁FOR	-2700
▁Her	-2701
▁Lie	-2702
▁ask	-2703
▁dro	-2704
▁ele	-2705
▁ice	-2706
▁mis	-2707
▁org	-2708
▁pol	-2709
▁sav	-2710
▁tot	-2711
▁unc	-2712
▁une	-2713
▁val	-2714
▁wid	-2715
ables	-2716
ineer	-2717
under	-2718
▁York	-2719
▁bold	-2720
▁cone	-2721
▁excl	-2722
▁gone	-2723
▁grew	-2724
▁inex	-2725
▁jump	-2726
▁lose	-2727
▁maps	-2728
▁mist	-2729
▁phil	-2730
▁play	-2731
▁purp	-2732
▁rail	-2733
▁twel	-2734
▁zero	-2735
ifying	-2736
isions	-2737
orrect	-2738
oubted	-2739
owards	-2740
rossed	-2741
▁Stony	-2742
▁accur	-2743
▁admir	-2744
▁cheer	-2745
▁child	-2746
▁coast	-2747
▁comet	-2748
▁creat	-2749
▁crust	-2750
▁drawn	-2751
▁dream	-2752
▁lands	-2753
▁level	-2754
▁meant	-2755
▁moved	-2756
▁oppos	-2757
▁pleas	-2758
▁solid	-2759
▁spark	-2760
▁speak	-2761
▁spite	-2762
▁therm	-2763
ensions	-2764
ression	-2765
ruction	-2766
utenant	-2767
▁across	-2768
▁behind	-2769
▁beings	-2770
▁chains	-2771
▁distur	-2772
▁explan	-2773
▁flying	-2774
▁hyperb	-2775
▁living	-2776
▁manner	-2777
▁mighty	-2778
▁notice	-2779
▁powder	-2780
▁recogn	-2781
▁relief	-2782
▁repres	-2783
▁specul	-2784
▁sphere	-2785
▁stream	-2786
▁Maedler	-2787
▁blazing	-2788
▁covered	-2789
▁despair	-2790
▁display	-2791
▁imagine	-2792
▁pointed	-2793
▁precaut	-2794
▁resumed	-2795
▁useless	-2796
▁western	-2797
▁argument	-2798
▁circular	-2799
▁describe	-2800
▁friction	-2801
▁millions	-2802
▁original	-2803
▁received	-2804
▁remained	-2805
▁watching	-2806
Copernicus	-2807
ortunately	-2808
▁contained	-2809
▁copyright	-2810
▁donations	-2811
▁longitude	-2812
▁radiating	-2813
▁undoubted	-2814
▁Lieutenant	-2815
▁Midshipman	-2816
▁apparently	-2817
▁instrument	-2818
▁chronometer	-2819
▁illuminated	-2820
▁thermometer	-2821
▁satisfactory	-2822
▁consideration	-2823
▁distinguished	-2824
EM	-2825
If	-2826
eg	-2827
ev	-2828
ye	-2829
Bec	-2830
ELL	-2831
ITE	-2832
New	-2833
ane	-2834
cus	-2835
els	-2836
hod	-2837
ipt	-2838
kes	-2839
non	-2840
phy	-2841
ram	-2842
▁11	-2843
▁17	-2844
▁40	-2845
▁Ex	-2846
▁IN	-2847
▁MO	-2848
▁ax	-2849
▁fa	-2850
ancy	-2851
angu	-2852
anks	-2853
come	-2854
ency	-2855
iety	-2856
imes	-2857
ison	-2858
know	-2859
mbri	-2860
ones	-2861
uded	-2862
wise	-2863
with	-2864
▁AND	-2865
▁Cal	-2866
▁Mur	-2867
▁Rep	-2868
▁anx	-2869
▁dem	-2870
▁der	-2871
▁die	-2872
▁dom	-2873
▁ear	-2874
▁fee	-2875
▁gen	-2876
▁lad	-2877
▁mel	-2878
▁top	-2879
▁tou	-2880
▁unf	-2881
abled	-2882
ament	-2883
ivers	-2884
orter	-2885
usted	-2886
▁Beer	-2887
▁Gulf	-2888
▁THEY	-2889
▁buoy	-2890
▁gaze	-2891
▁held	-2892
▁race	-2893
▁road	-2894
▁room	-2895
▁sail	-2896
▁sand	-2897
▁stud	-2898
▁temp	-2899
▁vent	-2900
ensity	-2901
ighbor	-2902
itatis	-2903
mbrium	-2904
ompany	-2905
orable	-2906
ounded	-2907
pothes	-2908
rehend	-2909
▁Chief	-2910
▁Jules	-2911
▁Obser	-2912
▁Rocky	-2913
▁admit	-2914
▁alarm	-2915
▁chief	-2916
▁crack	-2917
▁early	-2918
▁faces	-2919
▁impro	-2920
▁incon	-2921
▁knows	-2922
▁spoke	-2923
▁trace	-2924
▁train	-2925
▁young	-2926
Because	-2927
Nothing	-2928
itation	-2929
mission	-2930
raction	-2931
taining	-2932
▁12,000	-2933
▁Murphy	-2934
▁Though	-2935
▁cannon	-2936
▁cracks	-2937
▁depart	-2938
▁establ	-2939
▁experi	-2940
▁fallen	-2941
▁future	-2942
▁hearts	-2943
▁losing	-2944
▁mortal	-2945
▁safely	-2946
▁shores	-2947
▁twelve	-2948
pendicul	-2949
▁Imbrium	-2950
▁appears	-2951
▁central	-2952
▁clearly	-2953
▁comfort	-2954
▁courage	-2955
▁delight	-2956
▁effects	-2957
▁extreme	-2958
▁purpose	-2959
▁receive	-2960
▁reduced	-2961
▁uttered	-2962
▁various	-2963
▁windows	-2964
▁complete	-2965
▁infinite	-2966
▁neighbor	-2967
▁numerous	-2968
▁philosop	-2969
▁puzzling	-2970
▁standing	-2971
▁strictly	-2972
▁advantage	-2973
▁arguments	-2974
▁discovery	-2975
▁practical	-2976
▁witnessed	-2977
▁afterwards	-2978
▁appearance	-2979
▁impossible	-2980
▁proportion	-2981
▁vegetation	-2982
▁acknowledge	-2983
▁arrangement	-2984
▁interesting	-2985
▁perpendicul	-2986
▁accomplished	-2987
▁considerable	-2988
▁satisfaction	-2989
//	-2990
AS	-2991
Al	-2992
ls	-2993
://	-2994
Bel	-2995
ORE	-2996
VER	-2997
asy	-2998
cer	-2999
for	-3000
ger	-3001
ico	-3002
ird	-3003
pen	-3004
ugg	-3005
urd	-3006
▁**	-3007
▁24	-3008
▁35	-3009
▁50	-3010
▁Bl	-3011
▁CO	-3012
▁ON	-3013
▁XX	-3014
▁et	-3015
Then	-3016
hile	-3017
ills	-3018
inds	-3019
land	-3020
olog	-3021
ooks	-3022
ouds	-3023
peci	-3024
resh	-3025
ttps	-3026
ught	-3027
▁***	-3028
▁Eng	-3029
▁Ind	-3030
▁Sch	-3031
▁Who	-3032
▁bed	-3033
▁fat	-3034
▁fla	-3035
▁fle	-3036
▁gro	-3037
▁lot	-3038
▁rub	-3039
▁rug	-3040
▁tog	-3041
▁try	-3042
▁van	-3043
Where	-3044
amber	-3045
anced	-3046
arest	-3047
dance	-3048
edium	-3049
etary	-3050
gebra	-3051
ignor	-3052
ittee	-3053
known	-3054
tingu	-3055
ufact	-3056
uthor	-3057
ution	-3058
▁MOON	-3059
▁Well	-3060
▁cres	-3061
▁earn	-3062
▁feat	-3063
▁lead	-3064
▁loss	-3065
▁obli	-3066
▁paid	-3067
▁priv	-3068
▁repe	-3069
▁snow	-3070
▁spec	-3071
▁stop	-3072
▁tint	-3073
▁unin	-3074
▁wide	-3075
▁wond	-3076
aining	-3077
erence	-3078
icated	-3079
oughly	-3080
▁Ocean	-3081
▁board	-3082
▁carry	-3083
▁crowd	-3084
▁gazed	-3085
▁grave	-3086
▁https	-3087
▁makes	-3088
▁party	-3089
▁piece	-3090
▁prime	-3091
▁rocks	-3092
▁scale	-3093
▁shell	-3094
▁sleep	-3095
▁speed	-3096
▁storm	-3097
▁table	-3098
▁visit	-3099
▁width	-3100
▁worst	-3101
▁yours	-3102
Correct	-3103
ademark	-3104
▁broken	-3105
▁colors	-3106
▁coming	-3107
▁curves	-3108
▁double	-3109
▁escape	-3110
▁filled	-3111
▁incess	-3112
▁labors	-3113
▁lights	-3114
▁medium	-3115
▁method	-3116
▁nights	-3117
▁pencil	-3118
▁person	-3119
▁pitchy	-3120
▁record	-3121
▁roared	-3122
▁search	-3123
▁starry	-3124
▁strike	-3125
▁strugg	-3126
▁valley	-3127
▁License	-3128
▁Towards	-3129
▁allowed	-3130
▁dollars	-3131
▁earnest	-3132
▁efforts	-3133
▁enabled	-3134
▁escaped	-3135
▁extingu	-3136
▁feature	-3137
▁feeling	-3138
▁fifteen	-3139
▁formula	-3140
▁hastily	-3141
▁highest	-3142
▁horizon	-3143
▁million	-3144
▁provide	-3145
▁quicker	-3146
▁recover	-3147
▁require	-3148
▁working	-3149
▁Engineer	-3150
▁absorbed	-3151
▁addition	-3152
▁blinding	-3153
▁compared	-3154
▁crescent	-3155
▁employed	-3156
▁examined	-3157
▁features	-3158
▁humanity	-3159
▁hypothes	-3160
▁manufact	-3161
▁opposite	-3162
▁striking	-3163
▁together	-3164
▁described	-3165
▁immediate	-3166
▁phenomena	-3167
▁sometimes	-3168
▁somewhere	-3169
▁succeeded	-3170
▁discovered	-3171
▁discussion	-3172
▁maintained	-3173
▁successful	-3174
▁explanation	-3175
▁instruments	-3176
▁probability	-3177
▁neighborhood	-3178
▁perpendicular	-3179
16	-3180
At	-3181
CH	-3182
CT	-3183
LU	-3184
My	-3185
Of	-3186
On	-3187
bs	-3188
ek	-3189
gs	-3190
ns	-3191
pg	-3192
---	-3193
-1/	-3194
Fri	-3195
IGH	-3196
ION	-3197
ams	-3198
lem	-3199
min	-3200
ols	-3201
omm	-3202
rag	-3203
urg	-3204
wor	-3205
▁AN	-3206
▁Me	-3207
Good	-3208
adel	-3209
anim	-3210
anqu	-3211
bers	-3212
chan	-3213
cons	-3214
fied	-3215
olic	-3216
oney	-3217
onic	-3218
rent	-3219
soci	-3220
udge	-3221
wild	-3222
wing	-3223
▁Don	-3224
▁Nub	-3225
▁One	-3226
▁See	-3227
▁She	-3228
▁del	-3229
▁hes	-3230
▁inj	-3231
▁lie	-3232
▁pal	-3233
▁phr	-3234
▁sof	-3235
▁war	-3236
▁wel	-3237
Ardan	-3238
ality	-3239
arked	-3240
asing	-3241
eroid	-3242
iforn	-3243
inent	-3244
ingen	-3245
ising	-3246
lands	-3247
osion	-3248
rious	-3249
▁Cont	-3250
▁Mont	-3251
▁Phil	-3252
▁Such	-3253
▁acqu	-3254
▁ages	-3255
▁axis	-3256
▁busy	-3257
▁curi	-3258
▁deck	-3259
▁didn	-3260
▁hero	-3261
▁hung	-3262
▁inch	-3263
▁incl	-3264
▁mark	-3265
▁meas	-3266
▁none	-3267
▁noon	-3268
▁phys	-3269
▁safe	-3270
▁self	-3271
▁shif	-3272
▁shut	-3273
▁spir	-3274
▁tear	-3275
▁thou	-3276
▁told	-3277
▁used	-3278
▁wand	-3279
▁weak	-3280
▁yawn	-3281
arpath	-3282
arther	-3283
itudes	-3284
upiter	-3285
ussion	-3286
vatory	-3287
▁Could	-3288
▁Gener	-3289
▁Paris	-3290
▁South	-3291
▁Would	-3292
▁aston	-3293
▁aware	-3294
▁bolts	-3295
▁bring	-3296
▁devot	-3297
▁focus	-3298
▁freez	-3299
▁glory	-3300
▁house	-3301
▁ignor	-3302
▁image	-3303
▁labor	-3304
▁notes	-3305
▁organ	-3306
▁quant	-3307
▁shout	-3308
▁shows	-3309
▁spots	-3310
▁stock	-3311
▁stood	-3312
▁swall	-3313
▁weigh	-3314
▁whisp	-3315
Captain	-3316
cretary	-3317
hington	-3318
ounding	-3319
▁Nubium	-3320
▁absurd	-3321
▁altern	-3322
▁assert	-3323
▁associ	-3324
▁author	-3325
▁bewild	-3326
▁blazed	-3327
▁border	-3328
▁burned	-3329
▁common	-3330
▁desire	-3331
▁inside	-3332
▁killed	-3333
▁landsc	-3334
▁masses	-3335
▁master	-3336
▁places	-3337
▁prefer	-3338
▁resist	-3339
▁rising	-3340
▁rugged	-3341
▁senses	-3342
▁sooner	-3343
▁sought	-3344
▁thrown	-3345
▁unanim	-3346
▁utmost	-3347
▁waters	-3348
pecially	-3349
▁America	-3350
▁becomes	-3351
▁contact	-3352
▁contrad	-3353
▁counten	-3354
▁crossed	-3355
▁curious	-3356
▁descent	-3357
▁envelop	-3358
▁fearful	-3359
▁flashed	-3360
▁meeting	-3361
▁moments	-3362
▁nearest	-3363
▁noticed	-3364
▁planets	-3365
▁plateau	-3366
▁running	-3367
▁science	-3368
▁unknown	-3369
▁Californ	-3370
▁becoming	-3371
▁convince	-3372
▁heavenly	-3373
▁observer	-3374
▁occupied	-3375
▁superior	-3376
▁violence	-3377
▁yourself	-3378
▁Secretary	-3379
▁ascertain	-3380
▁assertion	-3381
▁beautiful	-3382
▁blackness	-3383
▁concluded	-3384
▁curiosity	-3385
▁departure	-3386
▁disappear	-3387
▁explosion	-3388
▁fortunate	-3389
▁frightful	-3390
▁including	-3391
▁inhabited	-3392
▁intellect	-3393
▁operation	-3394
▁possessed	-3395
▁principle	-3396
▁startling	-3397
▁telegraph	-3398
▁trademark	-3399
▁Washington	-3400
▁approached	-3401
▁concussion	-3402
▁dimensions	-3403
▁increasing	-3404
▁interested	-3405
▁interposed	-3406
▁permission	-3407
▁reflecting	-3408
▁undertaken	-3409
▁Observatory	-3410
▁continually	-3411
▁information	-3412
▁possibility	-3413
▁consequently	-3414
▁illumination	-3415
▁communication	-3416
As	-3417
EL	-3418
Is	-3419
Sh	-3420
St	-3421
gy	-3422
ha	-3423
mp	-3424
po	-3425
wo	-3426
zy	-3427
Can	-3428
III	-3429
ITH	-3430
One	-3431
_,"	-3432
acy	-3433
asc	-3434
cot	-3435
dle	-3436
erv	-3437
fic	-3438
ges	-3439
icy	-3440
ida	-3441
ike	-3442
ipp	-3443
ped	-3444
usp	-3445
was	-3446
▁Ha	-3447
▁NO	-3448
▁Ne	-3449
▁XV	-3450
▁ge	-3451
▁ma	-3452
▁ru	-3453
▁sn	-3454
▁te	-3455
Dear	-3456
This	-3457
aced	-3458
aled	-3459
alog	-3460
amed	-3461
anes	-3462
anke	-3463
asms	-3464
burg	-3465
cial	-3466
ilst	-3467
inus	-3468
kins	-3469
ldom	-3470
like	-3471
must	-3472
oned	-3473
oric	-3474
orry	-3475
phia	-3476
plan	-3477
plic	-3478
rene	-3479
ries	-3480
rows	-3481
rupt	-3482
this	-3483
unte	-3484
▁Fah	-3485
▁ant	-3486
▁bef	-3487
▁blo	-3488
▁dam	-3489
▁din	-3490
▁dut	-3491
▁eat	-3492
▁etc	-3493
▁fac	-3494
▁fre	-3495
▁gle	-3496
▁hur	-3497
▁mot	-3498
▁opt	-3499
▁shr	-3500
▁spr	-3501
▁uns	-3502
▁zen	-3503
Which	-3504
alled	-3505
anted	-3506
attle	-3507
aturn	-3508
irous	-3509
ondon	-3510
press	-3511
rated	-3512
umber	-3513
unged	-3514
▁Come	-3515
▁Comm	-3516
▁Flor	-3517
▁Have	-3518
▁Jove	-3519
▁Lake	-3520
▁Rail	-3521
▁Some	-3522
▁carb	-3523
▁conn	-3524
▁cord	-3525
▁edge	-3526
▁encl	-3527
▁erup	-3528
▁fair	-3529
▁fier	-3530
▁flas	-3531
▁gest	-3532
▁harb	-3533
▁harm	-3534
▁lips	-3535
▁love	-3536
▁mole	-3537
▁nons	-3538
▁note	-3539
▁pain	-3540
▁pale	-3541
▁phot	-3542
▁pict	-3543
▁pron	-3544
▁purs	-3545
▁rang	-3546
▁rose	-3547
▁sake	-3548
▁seas	-3549
▁shap	-3550
▁sofa	-3551
▁sugg	-3552
▁sust	-3553
▁thin	-3554
▁tons	-3555
▁wish	-3556
alling	-3557
concer	-3558
faster	-3559
iation	-3560
lessed	-3561
olving	-3562
ooting	-3563
ructed	-3564
though	-3565
ulting	-3566
▁Blanc	-3567
▁Mount	-3568
▁ahead	-3569
▁blast	-3570
▁block	-3571
▁chann	-3572
▁eager	-3573
▁ellip	-3574
▁estim	-3575
▁field	-3576
▁gives	-3577
▁happy	-3578
▁hasty	-3579
▁humor	-3580
▁ingen	-3581
▁mouth	-3582
▁noise	-3583
▁paper	-3584
▁perce	-3585
▁scene	-3586
▁screw	-3587
▁sorry	-3588
▁spent	-3589
▁stead	-3590
▁story	-3591
▁stout	-3592
▁stren	-3593
▁stret	-3594
▁track	-3595
▁truth	-3596
▁twice	-3597
▁vapor	-3598
▁yield	-3599
Carpath	-3600
Suppose	-3601
attered	-3602
ization	-3603
osition	-3604
ouncing	-3605
▁Before	-3606
▁Having	-3607
▁London	-3608
▁behold	-3609
▁clouds	-3610
▁copies	-3611
▁defect	-3612
▁extent	-3613
▁forest	-3614
▁gently	-3615
▁gloomy	-3616
▁heroes	-3617
▁horror	-3618
▁lasted	-3619
▁lately	-3620
▁minute	-3621
▁opened	-3622
▁plenty	-3623
▁posted	-3624
▁prompt	-3625
▁refund	-3626
▁regret	-3627
▁repose	-3628
▁secret	-3629
▁seldom	-3630
▁traces	-3631
▁unwill	-3632
▁whilst	-3633
▁wildly	-3634
▁zenith	-3635
adelphia	-3636
ccentric	-3637
▁Algebra	-3638
▁Company	-3639
▁Florida	-3640
▁General	-3641
▁alluded	-3642
▁ancient	-3643
▁animals	-3644
▁arrival	-3645
▁assumed	-3646
▁burning	-3647
▁cooling	-3648
▁endless	-3649
▁evident	-3650
▁figures	-3651
▁finding	-3652
▁follows	-3653
▁forming	-3654
▁keeping	-3655
▁meaning	-3656
▁outline	-3657
▁precise	-3658
▁prepare	-3659
▁prevail	-3660
▁princip	-3661
▁showing	-3662
▁sinking	-3663
▁stopped	-3664
▁summits	-3665
▁uninhab	-3666
▁upwards	-3667
▁Railroad	-3668
▁accuracy	-3669
▁asteroid	-3670
▁attended	-3671
▁desirous	-3672
▁hundreds	-3673
▁intended	-3674
▁maintain	-3675
▁mathemat	-3676
▁meantime	-3677
▁measured	-3678
▁muttered	-3679
▁particle	-3680
▁pleasant	-3681
▁presence	-3682
▁quantity	-3683
▁remarked	-3684
▁reminded	-3685
▁shooting	-3686
▁vanished	-3687
especially	-3688
▁Julesburg	-3689
▁announced	-3690
▁commenced	-3691
▁confident	-3692
▁disturbed	-3693
▁increased	-3694
▁knowledge	-3695
▁observers	-3696
▁occasions	-3697
▁otherwise	-3698
▁violently	-3699
▁California	-3700
▁advantages	-3701
▁associated	-3702
▁determined	-3703
▁diminished	-3704
▁sensations	-3705
▁surrounded	-3706
▁comfortable	-3707
▁countenance	-3708
▁inhabitable	-3709
▁precautions	-3710
▁surrounding	-3711
▁wonderfully	-3712
▁distributing	-3713
▁extinguished	-3714
▁consciousness	-3715
▁unfortunately	-3716
▁uninhabitable	-3717
50	-3718
AB	-3719
EW	-3720
IB	-3721
IV	-3722
So	-3723
_!	-3724
do	-3725
oh	-3726
ENT	-3727
aph	-3728
ara	-3729
ask	-3730
dra	-3731
erf	-3732
gee	-3733
ife	-3734
ils	-3735
inn	-3736
ism	-3737
laf	-3738
mar	-3739
num	-3740
oys	-3741
pes	-3742
pet	-3743
pty	-3744
rec	-3745
rel	-3746
rie	-3747
sed	-3748
two	-3749
udd	-3750
ues	-3751
urm	-3752
zen	-3753
▁1/	-3754
▁El	-3755
▁Eu	-3756
▁Or	-3757
▁kn	-3758
apse	-3759
arum	-3760
cell	-3761
ches	-3762
cles	-3763
ests	-3764
hens	-3765
ilar	-3766
irst	-3767
ives	-3768
oldt	-3769
oles	-3770
ooth	-3771
oses	-3772
oved	-3773
plex	-3774
ueen	-3775
uing	-3776
veni	-3777
vern	-3778
vius	-3779
west	-3780
zled	-3781
▁186	-3782
▁Acc	-3783
▁Can	-3784
▁Mac	-3785
▁Man	-3786
▁Mex	-3787
▁SAT	-3788
▁Wil	-3789
▁Yes	-3790
▁bir	-3791
▁coo	-3792
▁dre	-3793
▁dry	-3794
▁fro	-3795
▁icy	-3796
▁lit	-3797
▁maj	-3798
▁mus	-3799
▁pop	-3800
▁rot	-3801
▁sev	-3802
▁spy	-3803
▁tax	-3804
▁tre	-3805
ATION	-3806
Ocean	-3807
Sinus	-3808
arger	-3809
ceans	-3810
ellar	-3811
gress	-3812
idian	-3813
ieved	-3814
ilege	-3815
inery	-3816
istic	-3817
onder	-3818
organ	-3819
pglaf	-3820
plend	-3821
rived	-3822
still	-3823
there	-3824
these	-3825
ulous	-3826
verse	-3827
works	-3828
▁Humb	-3829
▁Nect	-3830
▁Schm	-3831
▁Your	-3832
▁bell	-3833
▁cost	-3834
▁dust	-3835
▁ende	-3836
▁fish	-3837
▁grat	-3838
▁grim	-3839
▁home	-3840
▁liqu	-3841
▁meal	-3842
▁nice	-3843
▁page	-3844
▁pati	-3845
▁resp	-3846
▁roll	-3847
▁says	-3848
▁scho	-3849
▁sett	-3850
▁vers	-3851
▁void	-3852
▁yell	-3853
ELLITE	-3854
Friend	-3855
anging	-3856
apping	-3857
avored	-3858
erhaps	-3859
inkled	-3860
jected	-3861
oubled	-3862
rehens	-3863
ulated	-3864
ushing	-3865
▁Chair	-3866
▁North	-3867
▁Point	-3868
▁Seren	-3869
▁Union	-3870
▁Where	-3871
▁aimed	-3872
▁apart	-3873
▁beams	-3874
▁check	-3875
▁cliff	-3876
▁cloud	-3877
▁comes	-3878
▁concl	-3879
▁dense	-3880
▁deser	-3881
▁doing	-3882
▁dread	-3883
▁empty	-3884
▁facts	-3885
▁fancy	-3886
▁fires	-3887
▁fling	-3888
▁fresh	-3889
▁glitt	-3890
▁green	-3891
▁heavy	-3892
▁ident	-3893
▁imper	-3894
▁innum	-3895
▁keeps	-3896
▁langu	-3897
▁lines	-3898
▁locom	-3899
▁money	-3900
▁parts	-3901
▁proof	-3902
▁subst	-3903
▁using	-3904
▁vivid	-3905
▁weary	-3906
Oceanus	-3907
arewell	-3908
fasters	-3909
inently	-3910
olution	-3911
ressing	-3912
ription	-3913
▁Around	-3914
▁Doctor	-3915
▁Morgan	-3916
▁Telesc	-3917
▁anyhow	-3918
▁assume	-3919
▁bottle	-3920
▁brains	-3921
▁chasms	-3922
▁comets	-3923
▁design	-3924
▁disput	-3925
▁domain	-3926
▁eBooks	-3927
▁enable	-3928
▁freely	-3929
▁illust	-3930
▁joyous	-3931
▁letter	-3932
▁lifted	-3933
▁lively	-3934
▁mechan	-3935
▁months	-3936
▁papers	-3937
▁pieces	-3938
▁prison	-3939
▁savage	-3940
▁screen	-3941
▁signal	-3942
▁spread	-3943
▁summer	-3944
▁thrill	-3945
▁uncons	-3946
▁worked	-3947
cellarum	-3948
istribut	-3949
standing	-3950
▁Consequ	-3951
▁Section	-3952
▁assured	-3953
▁blessed	-3954
▁blindly	-3955
▁confirm	-3956
▁conject	-3957
▁dropped	-3958
▁emotion	-3959
▁engaged	-3960
▁enjoyed	-3961
▁equator	-3962
▁eternal	-3963
▁farther	-3964
▁fellows	-3965
▁islands	-3966
▁jumping	-3967
▁mention	-3968
▁perplex	-3969
▁pleased	-3970
▁proceed	-3971
▁putting	-3972
▁refract	-3973
▁remarks	-3974
▁sailing	-3975
▁sending	-3976
▁spirits	-3977
▁station	-3978
▁support	-3979
▁underst	-3980
▁usually	-3981
▁variety	-3982
▁venture	-3983
▁volunte	-3984
▁writing	-3985
▁yawning	-3986
concerted	-3987
ification	-3988
planetary	-3989
▁Humboldt	-3990
▁Republic	-3991
▁brighter	-3992
▁continue	-3993
▁disposed	-3994
▁enclosed	-3995
▁entering	-3996
▁fastened	-3997
▁gracious	-3998
▁inclined	-3999
▁meridian	-4000
▁officers	-4001
▁pictures	-4002
▁railroad	-4003
▁recorded	-4004
▁restless	-4005
▁sounding	-4006
▁specific	-4007
▁strength	-4008
Belfasters	-4009
▁Committee	-4010
▁SATELLITE	-4011
▁Telescope	-4012
▁boundless	-4013
▁companion	-4014
▁entertain	-4015
▁exception	-4016
▁gentleman	-4017
▁glittered	-4018
▁honorable	-4019
▁hyperbola	-4020
▁intensely	-4021
▁intensity	-4022
▁lightning	-4023
▁machinery	-4024
▁naturally	-4025
▁occupying	-4026
▁privilege	-4027
▁proceeded	-4028
▁radiation	-4029
▁reflected	-4030
▁regularly	-4031
▁represent	-4032
▁spectacle	-4033
▁thousands	-4034
▁unwilling	-4035
Carpathians	-4036
▁additional	-4037
▁brightness	-4038
▁comprehend	-4039
▁describing	-4040
▁hypothesis	-4041
▁operations	-4042
▁pronounced	-4043
▁respective	-4044
▁Procellarum	-4045
▁confidently	-4046
▁illustrious	-4047
▁innumerable	-4048
▁unconscious	-4049
▁undoubtedly	-4050
▁Consequently	-4051
▁Philadelphia	-4052
▁distribution	-4053
▁intelligence	-4054
▁interruption	-4055
.1	-4056
._	-4057
1,	-4058
57	-4059
?_	-4060
EP	-4061
ID	-4062
IF	-4063
Pl	-4064
SC	-4065
UR	-4066
_;	-4067
ky	-4068
ww	-4069
!!"	-4070
All	-4071
DAN	-4072
LUB	-4073
See	-4074
aff	-4075
ahs	-4076
ama	-4077
cst	-4078
dor	-4079
eur	-4080
fur	-4081
hot	-4082
idt	-4083
ode	-4084
ods	-4085
ole	-4086
oli	-4087
oth	-4088
pap	-4089
pro	-4090
ray	-4091
rif	-4092
ris	-4093
rit	-4094
ubl	-4095
uct	-4096
uff	-4097
uls	-4098
une	-4099
unt	-4100
usc	-4101
www	-4102
▁14	-4103
▁27	-4104
▁Ac	-4105
▁DA	-4106
▁IT	-4107
▁La	-4108
▁OR	-4109
▁Re	-4110
▁SP	-4111
▁Sw	-4112
▁ap	-4113
▁ur	-4114
-1/2	-4115
Apen	-4116
Mapp	-4117
Your	-4118
ades	-4119
ases	-4120
atio	-4121
aved	-4122
aves	-4123
cont	-4124
cury	-4125
enet	-4126
enus	-4127
eral	-4128
four	-4129
gged	-4130
heit	-4131
hers	-4132
hole	-4133
igor	-4134
ileo	-4135
ille	-4136
illi	-4137
inet	-4138
inge	-4139
ivid	-4140
just	-4141
lemn	-4142
lied	-4143
line	-4144
lius	-4145
long	-4146
ogra	-4147
oose	-4148
orge	-4149
oris	-4150
pass	-4151
past	-4152
pler	-4153
reci	-4154
rick	-4155
rier	-4156
rote	-4157
rous	-4158
they	-4159
ucid	-4160
uine	-4161
uler	-4162
ungs	-4163
vice	-4164
▁200	-4165
▁354	-4166
▁400	-4167
▁Bay	-4168
▁Eye	-4169
▁Hum	-4170
▁Old	-4171
▁Ter	-4172
▁Wor	-4173
▁YOU	-4174
▁aud	-4175
▁box	-4176
▁cab	-4177
▁cat	-4178
▁cre	-4179
▁dig	-4180
▁fit	-4181
▁fog	-4182
▁nar	-4183
▁nic	-4184
▁pat	-4185
▁pot	-4186
▁sec	-4187
▁upp	-4188
▁voc	-4189
▁wat	-4190
▁yes	-4191
Apenn	-4192
Mappa	-4193
acles	-4194
ading	-4195
ancho	-4196
ankee	-4197
apped	-4198
arged	-4199
ators	-4200
board	-4201
celer	-4202
heast	-4203
hilst	-4204
illet	-4205
irect	-4206
iring	-4207
isite	-4208
ister	-4209
itten	-4210
quill	-4211
rying	-4212
ulate	-4213
uming	-4214
▁CLUB	-4215
▁Does	-4216
▁Inst	-4217
▁Like	-4218
▁Look	-4219
▁Mars	-4220
▁Miss	-4221
▁Tran	-4222
▁WITH	-4223
▁Were	-4224
▁abun	-4225
▁acid	-4226
▁amid	-4227
▁bare	-4228
▁book	-4229
▁bore	-4230
▁deli	-4231
▁deny	-4232
▁dogs	-4233
▁draw	-4234
▁duty	-4235
▁ecst	-4236
▁exec	-4237
▁fine	-4238
▁fing	-4239
▁flag	-4240
▁gold	-4241
▁hair	-4242
▁haul	-4243
▁hist	-4244
▁indu	-4245
▁irre	-4246
▁lamp	-4247
▁late	-4248
▁moon	-4249
▁rend	-4250
▁soul	-4251
▁stre	-4252
▁susp	-4253
▁swit	-4254
▁tail	-4255
▁thor	-4256
▁unus	-4257
alileo	-4258
ancing	-4259
escrib	-4260
ground	-4261
helion	-4262
lessly	-4263
marine	-4264
ointed	-4265
rowned	-4266
ustion	-4267
versed	-4268
▁ARDAN	-4269
▁River	-4270
▁abode	-4271
▁accor	-4272
▁begun	-4273
▁blood	-4274
▁buoys	-4275
▁chain	-4276
▁class	-4277
▁cones	-4278
▁cover	-4279
▁cryst	-4280
▁delay	-4281
▁delic	-4282
▁depos	-4283
▁drily	-4284
▁eBook	-4285
▁fatal	-4286
▁fault	-4287
▁flour	-4288
▁gleam	-4289
▁grant	-4290
▁holes	-4291
▁judge	-4292
▁knock	-4293
▁lungs	-4294
▁match	-4295
▁mater	-4296
▁monot	-4297
▁obedi	-4298
▁recon	-4299
▁renew	-4300
▁reser	-4301
▁river	-4302
▁rough	-4303
▁shade	-4304
▁signs	-4305
▁takes	-4306
▁threw	-4307
▁throb	-4308
▁total	-4309
▁upper	-4310
▁vigor	-4311
▁wings	-4312
▁wrote	-4313
Besides	-4314
ancholy	-4315
glasses	-4316
istered	-4317
ividual	-4318
ography	-4319
▁Mexico	-4320
▁Whilst	-4321
▁affirm	-4322
▁analog	-4323
▁asking	-4324
▁asleep	-4325
▁aspect	-4326
▁battle	-4327
▁blocks	-4328
▁breast	-4329
▁bridge	-4330
▁caused	-4331
▁cheers	-4332
▁cliffs	-4333
▁closed	-4334
▁comply	-4335
▁deeply	-4336
▁expect	-4337
▁figure	-4338
▁firmly	-4339
▁fourth	-4340
▁geolog	-4341
▁harbor	-4342
▁impati	-4343
▁incomp	-4344
▁injury	-4345
▁larger	-4346
▁layers	-4347
▁liquid	-4348
▁middle	-4349
▁narrow	-4350
▁obliqu	-4351
▁oceans	-4352
▁office	-4353
▁orders	-4354
▁phrase	-4355
▁please	-4356
▁prepar	-4357
▁preser	-4358
▁radius	-4359
▁ranges	-4360
▁region	-4361
▁ridges	-4362
▁satell	-4363
▁smooth	-4364
▁solemn	-4365
▁spaces	-4366
▁surely	-4367
▁transp	-4368
▁unable	-4369
ographer	-4370
ountered	-4371
ressions	-4372
▁Jupiter	-4373
▁Schmidt	-4374
▁Suppose	-4375
▁absence	-4376
▁acceler	-4377
▁bearing	-4378
▁century	-4379
▁cleared	-4380
▁closely	-4381
▁compens	-4382
▁conical	-4383
▁devoted	-4384
▁eagerly	-4385
▁ellipse	-4386
▁examine	-4387
▁example	-4388
▁explain	-4389
▁exposed	-4390
▁forests	-4391
▁furnace	-4392
▁genuine	-4393
▁grounds	-4394
▁heights	-4395
▁improve	-4396
▁inspect	-4397
▁logical	-4398
▁machine	-4399
▁missing	-4400
▁newspap	-4401
▁observe	-4402
▁offered	-4403
▁optical	-4404
▁plunged	-4405
▁produce	-4406
▁pulling	-4407
▁reading	-4408
▁reality	-4409
▁remains	-4410
▁replace	-4411
▁rigidly	-4412
▁rubbing	-4413
▁secrets	-4414
▁seizing	-4415
▁showers	-4416
▁squared	-4417
▁steamer	-4418
▁succeed	-4419
▁totally	-4420
▁weather	-4421
▁welcome	-4422
▁wildest	-4423
▁withdra	-4424
▁wonders	-4425
▁written	-4426
Apennines	-4427
Therefore	-4428
gutenberg	-4429
▁accident	-4430
▁advanced	-4431
▁breaking	-4432
▁carbonic	-4433
▁changing	-4434
▁children	-4435
▁complain	-4436
▁conceive	-4437
▁conclude	-4438
▁confined	-4439
▁constant	-4440
▁contract	-4441
▁contrast	-4442
▁detected	-4443
▁distinct	-4444
▁eclipses	-4445
▁gesticul	-4446
▁grandeur	-4447
▁language	-4448
▁laughing	-4449
▁material	-4450
▁meteoric	-4451
▁nonsense	-4452
▁noticing	-4453
▁particip	-4454
▁pointing	-4455
▁precious	-4456
▁previous	-4457
▁rapidity	-4458
▁relieved	-4459
▁repeated	-4460
▁resplend	-4461
▁sensible	-4462
▁singular	-4463
▁situated	-4464
▁startled	-4465
▁steadily	-4466
▁strongly	-4467
▁sunlight	-4468
▁thirteen	-4469
▁throwing	-4470
ifications	-4471
▁According	-4472
▁Americans	-4473
▁Lunarians	-4474
▁Tranquill	-4475
▁absorbing	-4476
▁determine	-4477
▁developed	-4478
▁deviation	-4479
▁discharge	-4480
▁fireworks	-4481
▁incessant	-4482
▁indescrib	-4483
▁ingenious	-4484
▁obedience	-4485
▁observing	-4486
▁parabolic	-4487
▁projected	-4488
▁recognize	-4489
▁resulting	-4490
▁swallowed	-4491
▁volcanoes	-4492
▁accordance	-4493
▁announcing	-4494
▁attractive	-4495
▁combustion	-4496
▁concentric	-4497
▁conclusion	-4498
▁confidence	-4499
▁containing	-4500
▁contradict	-4501
▁depression	-4502
▁especially	-4503
▁expressive	-4504
▁individual	-4505
▁melancholy	-4506
▁partitions	-4507
▁possession	-4508
▁reasonable	-4509
▁refraction	-4510
▁revolution	-4511
▁satellites	-4512
▁thoroughly	-4513
▁travelling	-4514
▁understood	-4515
withstanding	-4516
▁development	-4517
▁encountered	-4518
▁fortunately	-4519
▁imagination	-4520
▁unanimously	-4521
▁consequences	-4522
▁construction	-4523
▁disconcerted	-4524
▁enthusiastic	-4525
▁mathematical	-4526
▁sufficiently	-4527
▁triumphantly	-4528
▁counteracting	-4529
▁interplanetary	-4530
).	-4531
.3	-4532
AD	-4533
Ah	-4534
En	-4535
IL	-4536
Le	-4537
MP	-4538
Ne	-4539
OO	-4540
Se	-4541
my	-4542
yn	-4543
yr	-4544
!--	-4545
Bet	-4546
Bra	-4547
Con	-4548
Her	-4549
Our	-4550
RAN	-4551
REE	-4552
ULL	-4553
Who	-4554
_--	-4555
acc	-4556
aus	-4557
ays	-4558
cip	-4559
cox	-4560
eks	-4561
eng	-4562
ext	-4563
fra	-4564
ieu	-4565
ina	-4566
irt	-4567
ixt	-4568
lim	-4569
lly	-4570
med	-4571
met	-4572
ote	-4573
phe	-4574
rim	-4575
tly	-4576
tna	-4577
uge	-4578
ulg	-4579
xim	-4580
yth	-4581
▁28	-4582
▁AT	-4583
▁Ad	-4584
▁BE	-4585
▁Co	-4586
▁HE	-4587
▁HO	-4588
▁Im	-4589
▁Ir	-4590
▁PO	-4591
▁Pl	-4592
▁SE	-4593
▁Sh	-4594
▁Wh	-4595
▁gh	-4596
▁ty	-4597
ENSE	-4598
Have	-4599
IGHT	-4600
More	-4601
OUND	-4602
TION	-4603
Very	-4604
With	-4605
aily	-4606
alay	-4607
alse	-4608
ceiv	-4609
cely	-4610
chel	-4611
cies	-4612
down	-4613
eper	-4614
etit	-4615
grat	-4616
have	-4617
icci	-4618
ippi	-4619
lack	-4620
ners	-4621
oman	-4622
omed	-4623
omer	-4624
onel	-4625
orum	-4626
prit	-4627
rors	-4628
some	-4629
umps	-4630
vere	-4631
work	-4632
▁250	-4633
▁Atl	-4634
▁CON	-4635
▁Che	-4636
▁DIS	-4637
▁Him	-4638
▁LUN	-4639
▁Lat	-4640
▁May	-4641
▁PRO	-4642
▁WAS	-4643
▁Yet	-4644
▁aer	-4645
▁avo	-4646
▁bad	-4647
▁ble	-4648
▁bor	-4649
▁cav	-4650
▁egg	-4651
▁flu	-4652
▁gre	-4653
▁iss	-4654
▁jar	-4655
▁led	-4656
▁leg	-4657
▁mir	-4658
▁obl	-4659
▁osc	-4660
▁pan	-4661
▁rim	-4662
▁sir	-4663
▁thy	-4664
▁wip	-4665
▁wra	-4666
▁wre	-4667
Bravo	-4668
Doerf	-4669
Every	-4670
Right	-4671
ander	-4672
apsed	-4673
arily	-4674
astle	-4675
ciety	-4676
conom	-4677
eding	-4678
elebr	-4679
enses	-4680
enths	-4681
erned	-4682
essed	-4683
glass	-4684
hered	-4685
iance	-4686
immer	-4687
inder	-4688
inity	-4689
ively	-4690
lance	-4691
loved	-4692
ompan	-4693
ongue	-4694
orary	-4695
ories	-4696
orily	-4697
orses	-4698
otive	-4699
otted	-4700
rable	-4701
rence	-4702
retty	-4703
ribed	-4704
rogen	-4705
spect	-4706
tions	-4707
uable	-4708
unity	-4709
▁Cris	-4710
▁Hers	-4711
▁Heve	-4712
▁Only	-4713
▁Sier	-4714
▁THIS	-4715
▁abys	-4716
▁arch	-4717
▁bits	-4718
▁blow	-4719
▁boat	-4720
▁bows	-4721
▁bran	-4722
▁cand	-4723
▁corp	-4724
▁crew	-4725
▁deal	-4726
▁disg	-4727
▁ener	-4728
▁exer	-4729
▁exha	-4730
▁fant	-4731
▁feas	-4732
▁fold	-4733
▁fond	-4734
▁frag	-4735
▁fron	-4736
▁gain	-4737
▁glad	-4738
▁gray	-4739
▁hall	-4740
▁hole	-4741
▁holl	-4742
▁inev	-4743
▁keen	-4744
▁kill	-4745
▁libr	-4746
▁mult	-4747
▁odor	-4748
▁publ	-4749
▁rain	-4750
▁risk	-4751
▁roar	-4752
▁rush	-4753
▁seat	-4754
▁site	-4755
▁step	-4756
▁stun	-4757
▁term	-4758
▁thro	-4759
▁town	-4760
▁trap	-4761
Better	-4762
Newton	-4763
alking	-4764
angled	-4765
asmyth	-4766
cotton	-4767
enteen	-4768
except	-4769
icking	-4770
insula	-4771
mitted	-4772
pheric	-4773
readth	-4774
resses	-4775
▁-----	-4776
▁Creat	-4777
▁First	-4778
▁Petit	-4779
▁Stars	-4780
▁Those	-4781
▁angry	-4782
▁artic	-4783
▁banks	-4784
▁betra	-4785
▁brink	-4786
▁broke	-4787
▁build	-4788
▁chart	-4789
▁compr	-4790
▁conve	-4791
▁drink	-4792
▁embra	-4793
▁faith	-4794
▁false	-4795
▁flash	-4796
▁giant	-4797
▁glist	-4798
▁gorge	-4799
▁guard	-4800
▁hills	-4801
▁infer	-4802
▁limbs	-4803
▁lucid	-4804
▁memor	-4805
▁minds	-4806
▁minus	-4807
▁misty	-4808
▁moder	-4809
▁moves	-4810
▁ninet	-4811
▁older	-4812
▁piles	-4813
▁proud	-4814
▁ratio	-4815
▁refer	-4816
▁revel	-4817
▁ridge	-4818
▁rings	-4819
▁roast	-4820
▁ruins	-4821
▁saved	-4822
▁shake	-4823
▁store	-4824
▁study	-4825
▁surve	-4826
▁tones	-4827
▁touch	-4828
▁weird	-4829
▁whist	-4830
▁write	-4831
Another	-4832
Doerfel	-4833
Project	-4834
ailable	-4835
alayahs	-4836
ational	-4837
ections	-4838
iccioli	-4839
ishment	-4840
issippi	-4841
itating	-4842
ouillet	-4843
renheit	-4844
stellar	-4845
▁Athens	-4846
▁Herald	-4847
▁Saturn	-4848
▁Wilcox	-4849
▁Yankee	-4850
▁abrupt	-4851
▁active	-4852
▁amount	-4853
▁anyone	-4854
▁applic	-4855
▁assist	-4856
▁attach	-4857
▁awaken	-4858
▁befall	-4859
▁belong	-4860
▁brakes	-4861
▁cavern	-4862
▁celebr	-4863
▁cities	-4864
▁conver	-4865
▁cooled	-4866
▁dashed	-4867
▁deeper	-4868
▁demand	-4869
▁destro	-4870
▁doubts	-4871
▁easier	-4872
▁econom	-4873
▁ellipt	-4874
▁employ	-4875
▁engine	-4876
▁excess	-4877
▁exclam	-4878
▁extend	-4879
▁fields	-4880
▁foresh	-4881
▁gained	-4882
▁genial	-4883
▁indiff	-4884
▁infall	-4885
▁ladder	-4886
▁landed	-4887
▁latest	-4888
▁laying	-4889
▁leaves	-4890
▁lowest	-4891
▁majest	-4892
▁marked	-4893
▁modify	-4894
▁obtain	-4895
▁oscill	-4896
▁permit	-4897
▁placed	-4898
▁plates	-4899
▁played	-4900
▁raised	-4901
▁recoll	-4902
▁rested	-4903
▁school	-4904
▁scream	-4905
▁screws	-4906
▁season	-4907
▁serene	-4908
▁severe	-4909
▁silver	-4910
▁spoken	-4911
▁stared	-4912
▁states	-4913
▁street	-4914
▁tongue	-4915
▁tranqu	-4916
▁transc	-4917
▁viewed	-4918
▁vision	-4919
▁voices	-4920
▁wanted	-4921
▁whence	-4922
▁wrecks	-4923
entrated	-4924
ographic	-4925
ortheast	-4926
othering	-4927
▁Colonel	-4928
▁Galileo	-4929
▁accents	-4930
▁annular	-4931
▁appreci	-4932
▁beloved	-4933
▁besides	-4934
▁bolides	-4935
▁bottles	-4936
▁breathe	-4937
▁ceiling	-4938
▁chamber	-4939
▁clearer	-4940
▁congrat	-4941
▁crushed	-4942
▁crystal	-4943
▁current	-4944
▁divided	-4945
▁dragged	-4946
▁draught	-4947
▁equally	-4948
▁exclaim	-4949
▁existed	-4950
▁expense	-4951
▁extinct	-4952
▁failure	-4953
▁furrows	-4954
▁growled	-4955
▁impenet	-4956
▁knowing	-4957
▁leaving	-4958
▁letting	-4959
▁meteors	-4960
▁passage	-4961
▁passing	-4962
▁plainly	-4963
▁popular	-4964
▁protect	-4965
▁puzzled	-4966
▁quitted	-4967
▁radiant	-4968
▁receipt	-4969
▁renewed	-4970
▁results	-4971
▁setting	-4972
▁settled	-4973
▁shaking	-4974
▁similar	-4975
▁slumber	-4976
▁solidly	-4977
▁sounded	-4978
▁springs	-4979
▁streams	-4980
▁streets	-4981
▁unusual	-4982
President	-4983
astically	-4984
formation	-4985
ographica	-4986
▁Atlantic	-4987
▁Herschel	-4988
▁Hevelius	-4989
▁Mathemat	-4990
▁Nectaris	-4991
▁accompan	-4992
▁animated	-4993
▁attached	-4994
▁bowsprit	-4995
▁carrying	-4996
▁cheering	-4997
▁combined	-4998
▁cracking	-4999
▁deprived	-5000
▁disorder	-5001
▁dreadful	-5002
▁eclipsed	-5003
▁evidence	-5004
▁existing	-5005
▁explains	-5006
▁extended	-5007
▁farewell	-5008
▁feelings	-5009
▁freezing	-5010
▁grandest	-5011
▁happened	-5012
▁heartily	-5013
▁obstacle	-5014
▁obtained	-5015
▁outlines	-5016
▁parabola	-5017
▁patience	-5018
▁progress	-5019
▁promptly	-5020
▁quitting	-5021
▁rendered	-5022
▁reporter	-5023
▁reversed	-5024
▁secondly	-5025
▁solution	-5026
▁supposed	-5027
▁whenever	-5028
rehensible	-5029
▁anxiously	-5030
▁breathing	-5031
▁collision	-5032
▁conceived	-5033
▁concerned	-5034
▁continent	-5035
▁correctly	-5036
▁creatures	-5037
▁dangerous	-5038
▁delighted	-5039
▁deposited	-5040
▁directing	-5041
▁divisions	-5042
▁eccentric	-5043
▁embracing	-5044
▁eminently	-5045
▁explained	-5046
▁extending	-5047
▁fantastic	-5048
▁forgotten	-5049
▁inconceiv	-5050
▁indicated	-5051
▁landscape	-5052
▁miserable	-5053
▁performed	-5054
▁producing	-5055
▁provision	-5056
▁published	-5057
▁resembled	-5058
▁retarding	-5059
▁returning	-5060
▁scientist	-5061
▁sentiment	-5062
▁seriously	-5063
▁shapeless	-5064
▁shoulders	-5065
▁sparkling	-5066
▁subjected	-5067
▁submarine	-5068
▁suggested	-5069
▁supposing	-5070
▁thickness	-5071
▁uncertain	-5072
▁wandering	-5073
▁whispered	-5074
▁Everything	-5075
▁Fahrenheit	-5076
▁Himalayahs	-5077
▁astounding	-5078
▁attracting	-5079
▁collection	-5080
▁conditions	-5081
▁conjecture	-5082
▁discharged	-5083
▁displaying	-5084
▁distribute	-5085
▁experience	-5086
▁formations	-5087
▁frightened	-5088
▁geological	-5089
▁hesitation	-5090
▁inevitable	-5091
▁inspection	-5092
▁locomotive	-5093
▁occasional	-5094
▁presenting	-5095
▁proceeding	-5096
▁provisions	-5097
▁regularity	-5098
▁relatively	-5099
▁separating	-5100
▁smothering	-5101
▁vertically	-5102
▁volunteers	-5103
▁yourselves	-5104
▁Mathematics	-5105
▁Mississippi	-5106
▁Serenitatis	-5107
▁atmospheric	-5108
▁considering	-5109
▁constructed	-5110
▁description	-5111
▁destination	-5112
▁distributed	-5113
▁established	-5114
▁intelligent	-5115
▁represented	-5116
▁concentrated	-5117
▁contemplated	-5118
▁impenetrable	-5119
▁indifference	-5120
▁manufactured	-5121
▁indescribable	-5122
▁Selenographica	-5123
▁characteristic	-5124
▁investigations	-5125
▁satisfactorily	-5126
▁notwithstanding	-5127
',	-5128
,_	-5129
.'	-5130
.)	-5131
..	-5132
.8	-5133
60	-5134
71	-5135
AG	-5136
AK	-5137
BS	-5138
CE	-5139
CO	-5140
Ex	-5141
Ha	-5142
JE	-5143
LY	-5144
Or	-5145
PH	-5146
TR	-5147
_:	-5148
_?	-5149
gr	-5150
me	-5151
sp	-5152
ux	-5153
ze	-5154
▁x	-5155
,--	-5156
.--	-5157
457	-5158
ACK	-5159
ALF	-5160
ARB	-5161
ART	-5162
BER	-5163
Cla	-5164
Did	-5165
Has	-5166
Hey	-5167
IED	-5168
IFT	-5169
INS	-5170
ITT	-5171
ITY	-5172
LIM	-5173
Mac	-5174
PED	-5175
Pro	-5176
Put	-5177
ROM	-5178
STR	-5179
TIM	-5180
arr	-5181
ata	-5182
ato	-5183
bly	-5184
bon	-5185
cke	-5186
cle	-5187
cra	-5188
ded	-5189
den	-5190
dom	-5191
ems	-5192
esu	-5193
eys	-5194
hip	-5195
ige	-5196
ilt	-5197
imb	-5198
ini	-5199
isk	-5200
itz	-5201
leg	-5202
nce	-5203
nil	-5204
oke	-5205
opp	-5206
osp	-5207
pie	-5208
ras	-5209
rol	-5210
rue	-5211
uly	-5212
vre	-5213
who	-5214
yle	-5215
▁2.	-5216
▁22	-5217
▁23	-5218
▁42	-5219
▁46	-5220
▁48	-5221
▁70	-5222
▁Ab	-5223
▁Ap	-5224
▁EB	-5225
▁Er	-5226
▁Es	-5227
▁Gi	-5228
▁Ho	-5229
▁II	-5230
▁IS	-5231
▁Mt	-5232
▁My	-5233
▁NE	-5234
▁VI	-5235
▁XI	-5236
▁av	-5237
▁eb	-5238
▁id	-5239
▁py	-5240
--?"	-5241
BERG	-5242
BSER	-5243
Come	-5244
Foot	-5245
IBLE	-5246
ICAN	-5247
IRST	-5248
JECT	-5249
Look	-5250
OUGH	-5251
Only	-5252
SCAP	-5253
Such	-5254
UTEN	-5255
VERS	-5256
Vive	-5257
alks	-5258
alth	-5259
apes	-5260
avig	-5261
boat	-5262
book	-5263
dant	-5264
duce	-5265
emis	-5266
ffin	-5267
form	-5268
half	-5269
hods	-5270
icks	-5271
ieth	-5272
ieve	-5273
illa	-5274
imum	-5275
inst	-5276
iser	-5277
ital	-5278
lier	-5279
lime	-5280
more	-5281
mory	-5282
noon	-5283
note	-5284
olas	-5285
olid	-5286
olis	-5287
only	-5288
orth	-5289
oute	-5290
oves	-5291
peak	-5292
peri	-5293
ples	-5294
poch	-5295
pond	-5296
pper	-5297
rade	-5298
radi	-5299
rago	-5300
rant	-5301
rily	-5302
roll	-5303
rope	-5304
sing	-5305
such	-5306
swer	-5307
uber	-5308
ucky	-5309
umes	-5310
unct	-5311
uous	-5312
uses	-5313
uted	-5314
were	-5315
whel	-5316
▁(16	-5317
▁100	-5318
▁150	-5319
▁240	-5320
▁500	-5321
▁ALL	-5322
▁ANY	-5323
▁Ang	-5324
▁Any	-5325
▁Ast	-5326
▁BAL	-5327
▁Far	-5328
▁Fou	-5329
▁GUN	-5330
▁Hon	-5331
▁Mad	-5332
▁Mah	-5333
▁Mon	-5334
▁OFF	-5335
▁Pen	-5336
▁WAR	-5337
▁WOR	-5338
▁age	-5339
▁aid	-5340
▁bal	-5341
▁bes	-5342
▁bye	-5343
▁cel	-5344
▁cou	-5345
▁cup	-5346
▁ded	-5347
▁emb	-5348
▁fan	-5349
▁fix	-5350
▁god	-5351
▁hab	-5352
▁hat	-5353
▁hit	-5354
▁inm	-5355
▁isn	-5356
▁mic	-5357
▁mol	-5358
▁neg	-5359
▁net	-5360
▁nit	-5361
▁ran	-5362
▁sal	-5363
▁sat	-5364
▁slo	-5365
▁sne	-5366
▁tor	-5367
▁tub	-5368
▁unb	-5369
▁unp	-5370
Shall	-5371
These	-5372
aches	-5373
added	-5374
aging	-5375
alcul	-5376
alent	-5377
allic	-5378
anned	-5379
ardly	-5380
arers	-5381
arted	-5382
artyr	-5383
cause	-5384
could	-5385
eenth	-5386
eight	-5387
eness	-5388
epler	-5389
every	-5390
ially	-5391
icker	-5392
idity	-5393
igned	-5394
ionth	-5395
ipped	-5396
isten	-5397
itate	-5398
itute	-5399
leton	-5400
matic	-5401
mbers	-5402
olden	-5403
olite	-5404
olved	-5405
omach	-5406
ontal	-5407
orama	-5408
ource	-5409
ouses	-5410
pping	-5411
ranus	-5412
roach	-5413
seven	-5414
ultiv	-5415
urely	-5416
▁BARB	-5417
▁Barb	-5418
▁COLD	-5419
▁Cent	-5420
▁Cons	-5421
▁Elph	-5422
▁Five	-5423
▁Frig	-5424
▁Gate	-5425
▁Gree	-5426
▁HALF	-5427
▁HIGH	-5428
▁Hope	-5429
▁Just	-5430
▁Near	-5431
▁Next	-5432
▁Nove	-5433
▁Over	-5434
▁Rain	-5435
▁Salt	-5436
▁THAT	-5437
▁adop	-5438
▁ashy	-5439
▁aver	-5440
▁beat	-5441
▁beds	-5442
▁beef	-5443
▁bree	-5444
▁buff	-5445
▁butt	-5446
▁clap	-5447
▁clay	-5448
▁clos	-5449
▁coal	-5450
▁craw	-5451
▁decl	-5452
▁died	-5453
▁dism	-5454
▁doom	-5455
▁drew	-5456
▁drun	-5457
▁elev	-5458
▁emer	-5459
▁ench	-5460
▁enjo	-5461
▁exqu	-5462
▁fasc	-5463
▁fath	-5464
▁fees	-5465
▁fiss	-5466
▁flew	-5467
▁flow	-5468
▁fund	-5469
▁gall	-5470
▁gase	-5471
▁goes	-5472
▁heap	-5473
▁hens	-5474
▁host	-5475
▁inqu	-5476
▁isol	-5477
▁king	-5478
▁lake	-5479
▁laun	-5480
▁lect	-5481
▁legs	-5482
▁lens	-5483
▁lift	-5484
▁lust	-5485
▁mine	-5486
▁mixt	-5487
▁murm	-5488
▁nail	-5489
▁neat	-5490
▁nodd	-5491
▁obsc	-5492
▁pack	-5493
▁pity	-5494
▁quit	-5495
▁rare	-5496
▁ratt	-5497
▁reck	-5498
▁reel	-5499
▁rese	-5500
▁sang	-5501
▁scar	-5502
▁scor	-5503
▁shru	-5504
▁smot	-5505
▁sunk	-5506
▁task	-5507
▁tast	-5508
▁teet	-5509
▁trop	-5510
▁type	-5511
▁unre	-5512
▁uphe	-5513
▁vary	-5514
▁vest	-5515
▁wait	-5516
▁wear	-5517
▁week	-5518
ATIONS	-5519
Enough	-5520
TIMORE	-5521
acious	-5522
ambert	-5523
anquet	-5524
anting	-5525
ashing	-5526
cracks	-5527
endent	-5528
ension	-5529
ercury	-5530
erning	-5531
estial	-5532
finite	-5533
hether	-5534
idable	-5535
imedes	-5536
imming	-5537
inence	-5538
inging	-5539
ingled	-5540
itated	-5541
lected	-5542
ledged	-5543
pheres	-5544
reeted	-5545
tenths	-5546
terday	-5547
uarter	-5548
velope	-5549
ximity	-5550
▁Cisco	-5551
▁FIRST	-5552
▁GUTEN	-5553
▁Hence	-5554
▁LUNAR	-5555
▁Natur	-5556
▁Night	-5557
▁OBSER	-5558
▁Venus	-5559
▁advis	-5560
▁agony	-5561
▁armor	-5562
▁arrow	-5563
▁balls	-5564
▁birds	-5565
▁blame	-5566
▁boats	-5567
▁bones	-5568
▁borne	-5569
▁brisk	-5570
▁built	-5571
▁chair	-5572
▁chick	-5573
▁chill	-5574
▁chlor	-5575
▁clust	-5576
▁crest	-5577
▁desol	-5578
▁dozen	-5579
▁drear	-5580
▁dying	-5581
▁epoch	-5582
▁fight	-5583
▁final	-5584
▁fired	-5585
▁flame	-5586
▁float	-5587
▁forci	-5588
▁front	-5589
▁hence	-5590
▁horse	-5591
▁ideas	-5592
▁immob	-5593
▁indul	-5594
▁intox	-5595
▁inval	-5596
▁kinds	-5597
▁lapse	-5598
▁liked	-5599
▁limit	-5600
▁looks	-5601
▁loose	-5602
▁multi	-5603
▁noble	-5604
▁noses	-5605
▁novel	-5606
▁owner	-5607
▁pairs	-5608
▁penet	-5609
▁piled	-5610
▁plane	-5611
▁prove	-5612
▁radii	-5613
▁restr	-5614
▁rever	-5615
▁risen	-5616
▁rises	-5617
▁route	-5618
▁ruler	-5619
▁selen	-5620
▁share	-5621
▁shine	-5622
▁shrie	-5623
▁smart	-5624
▁steel	-5625
▁stern	-5626
▁stone	-5627
▁style	-5628
▁tight	-5629
▁tired	-5630
▁toler	-5631
▁tools	-5632
▁treat	-5633
▁unequ	-5634
▁urged	-5635
▁valid	-5636
▁wants	-5637
▁waste	-5638
▁waves	-5639
▁weeks	-5640
▁whirl	-5641
▁woman	-5642
▁women	-5643
Clavius	-5644
amental	-5645
anciful	-5646
instone	-5647
irector	-5648
ossible	-5649
respond	-5650
robably	-5651
ulation	-5652
unction	-5653
utation	-5654
venient	-5655
▁AROUND	-5656
▁Academ	-5657
▁Europe	-5658
▁Father	-5659
▁Golden	-5660
▁Hurrah	-5661
▁Mother	-5662
▁People	-5663
▁WARRAN	-5664
▁acting	-5665
▁actual	-5666
▁adjust	-5667
▁afford	-5668
▁agreed	-5669
▁amused	-5670
▁arrive	-5671
▁attend	-5672
▁awhile	-5673
▁barely	-5674
▁beside	-5675
▁branch	-5676
▁chance	-5677
▁circle	-5678
▁coffin	-5679
▁comple	-5680
▁comput	-5681
▁convex	-5682
▁coolly	-5683
▁copied	-5684
▁corusc	-5685
▁couple	-5686
▁curtly	-5687
▁damage	-5688
▁dimmer	-5689
▁dinner	-5690
▁diving	-5691
▁dotted	-5692
▁evapor	-5693
▁fairly	-5694
▁finest	-5695
▁format	-5696
▁grimly	-5697
▁ground	-5698
▁health	-5699
▁hiding	-5700
▁holder	-5701
▁horses	-5702
▁houses	-5703
▁hunger	-5704
▁hurrah	-5705
▁inches	-5706
▁incred	-5707
▁induce	-5708
▁indust	-5709
▁insist	-5710
▁joyful	-5711
▁kindly	-5712
▁magnet	-5713
▁manage	-5714
▁memory	-5715
▁merely	-5716
▁missed	-5717
▁molten	-5718
▁mother	-5719
▁occupy	-5720
▁online	-5721
▁onward	-5722
▁passes	-5723
▁paying	-5724
▁potash	-5725
▁precip	-5726
▁refuge	-5727
▁refuse	-5728
▁rivers	-5729
▁spring	-5730
▁status	-5731
▁strang	-5732
▁supper	-5733
▁tables	-5734
▁talked	-5735
▁termin	-5736
▁thread	-5737
▁threat	-5738
▁travel	-5739
▁waving	-5740
Footnote	-5741
illikins	-5742
iversity	-5743
omething	-5744
ordingly	-5745
ountable	-5746
recisely	-5747
romantic	-5748
▁Another	-5749
▁Creator	-5750
▁Fourier	-5751
▁Humorum	-5752
▁Indians	-5753
▁Mahomet	-5754
▁Nasmyth	-5755
▁PROJECT	-5756
▁Perhaps	-5757
▁admired	-5758
▁anxiety	-5759
▁anybody	-5760
▁beating	-5761
▁caloric	-5762
▁casting	-5763
▁centres	-5764
▁channel	-5765
▁circles	-5766
▁comical	-5767
▁command	-5768
▁company	-5769
▁compare	-5770
▁conceal	-5771
▁condens	-5772
▁copying	-5773
▁counted	-5774
▁cutting	-5775
▁dangers	-5776
▁derrick	-5777
▁destroy	-5778
▁dispute	-5779
▁disturb	-5780
▁dreamed	-5781
▁dressed	-5782
▁driving	-5783
▁drowned	-5784
▁ecstasy	-5785
▁ejected	-5786
▁endured	-5787
▁entered	-5788
▁favored	-5789
▁flashes	-5790
▁forward	-5791
▁gaseous	-5792
▁gravely	-5793
▁greeted	-5794
▁guesses	-5795
▁history	-5796
▁inmates	-5797
▁interse	-5798
▁justify	-5799
▁landing	-5800
▁letters	-5801
▁lifting	-5802
▁located	-5803
▁lowered	-5804
▁managed	-5805
▁manhole	-5806
▁matters	-5807
▁members	-5808
▁methods	-5809
▁mineral	-5810
▁nearing	-5811
▁nowhere	-5812
▁oblique	-5813
▁officer	-5814
▁periods	-5815
▁process	-5816
▁propose	-5817
▁proving	-5818
▁quality	-5819
▁readers	-5820
▁refused	-5821
▁reminds	-5822
▁removed	-5823
▁ringing	-5824
▁rushing	-5825
▁shorter	-5826
▁shouted	-5827
▁silvery	-5828
▁sixteen	-5829
▁smiling	-5830
▁special	-5831
▁stomach	-5832
▁sublime	-5833
▁surpass	-5834
▁systems	-5835
▁tearing	-5836
▁telegra	-5837
▁thunder	-5838
▁utterly	-5839
▁vestige	-5840
▁wrapped	-5841
▁yielded	-5842
ographers	-5843
pressible	-5844
▁BARBICAN	-5845
▁Frigoris	-5846
▁November	-5847
▁Riccioli	-5848
▁affected	-5849
▁anywhere	-5850
▁arranged	-5851
▁assuming	-5852
▁awakened	-5853
▁catching	-5854
▁cheerful	-5855
▁clearing	-5856
▁commence	-5857
▁counting	-5858
▁creation	-5859
▁decision	-5860
▁diffused	-5861
▁diminish	-5862
▁disclaim	-5863
▁editions	-5864
▁envelope	-5865
▁exciting	-5866
▁expenses	-5867
▁faintest	-5868
▁faithful	-5869
▁favorite	-5870
▁flapping	-5871
▁flashing	-5872
▁formerly	-5873
▁gorgeous	-5874
▁ignorant	-5875
▁inferior	-5876
▁insisted	-5877
▁invented	-5878
▁metallic	-5879
▁modified	-5880
▁obstruct	-5881
▁occurred	-5882
▁official	-5883
▁overcome	-5884
▁overwhel	-5885
▁panorama	-5886
▁perceive	-5887
▁personal	-5888
▁physical	-5889
▁polished	-5890
▁portions	-5891
▁preserve	-5892
▁problems	-5893
▁proposed	-5894
▁prospect	-5895
▁radiated	-5896
▁realized	-5897
▁relished	-5898
▁reserved	-5899
▁respects	-5900
▁restored	-5901
▁retained	-5902
▁rotation	-5903
▁shifting	-5904
▁solidity	-5905
▁supplied	-5906
▁switched	-5907
▁telegram	-5908
▁terrific	-5909
▁thoughts	-5910
▁touching	-5911
▁treasure	-5912
▁tropical	-5913
▁ventured	-5914
▁whispers	-5915
▁yielding	-5916
ographical	-5917
▁BALTIMORE	-5918
▁Certainly	-5919
▁Continent	-5920
▁GUTENBERG	-5921
▁admitting	-5922
▁afternoon	-5923
▁appointed	-5924
▁believing	-5925
▁celestial	-5926
▁certainty	-5927
▁comprised	-5928
▁confirmed	-5929
▁delicious	-5930
▁depressed	-5931
▁discussed	-5932
▁eruptions	-5933
▁establish	-5934
▁exhausted	-5935
▁expressed	-5936
▁exquisite	-5937
▁firmament	-5938
▁foreshort	-5939
▁fragments	-5940
▁furnished	-5941
▁identical	-5942
▁involving	-5943
▁necessity	-5944
▁newspaper	-5945
▁northeast	-5946
▁occupants	-5947
▁overboard	-5948
▁perceived	-5949
▁principal	-5950
▁professor	-5951
▁providing	-5952
▁proximity	-5953
▁reception	-5954
▁recording	-5955
▁recovered	-5956
▁redoubled	-5957
▁remembers	-5958
▁rendering	-5959
▁revealing	-5960
▁revolving	-5961
▁satisfied	-5962
▁shattered	-5963
▁smothered	-5964
▁southwest	-5965
▁strangely	-5966
▁suspended	-5967
▁throbbing	-5968
▁vegetable	-5969
▁whistling	-5970
▁withdrawn	-5971
▁yesterday	-5972
▁admiration	-5973
▁applicable	-5974
▁background	-5975
▁bewildered	-5976
▁compliance	-5977
▁confounded	-5978
▁enveloping	-5979
▁estimation	-5980
▁explaining	-5981
▁glistening	-5982
▁horizontal	-5983
▁immobility	-5984
▁importance	-5985
▁impression	-5986
▁indefinite	-5987
▁infinitely	-5988
▁influences	-5989
▁instantane	-5990
▁landscapes	-5991
▁magnifying	-5992
▁occurrence	-5993
▁performing	-5994
▁possessing	-5995
▁precaution	-5996
▁prominence	-5997
▁recognized	-5998
▁recovering	-5999
▁resembling	-6000
▁resistance	-6001
▁singularly	-6002
▁struggling	-6003
▁succession	-6004
▁successive	-6005
Barbicanites	-6006
▁Elphinstone	-6007
▁Information	-6008
▁accompanied	-6009
▁authorities	-6010
▁calculating	-6011
▁contemplate	-6012
▁destruction	-6013
▁examination	-6014
▁exclamation	-6015
▁experienced	-6016
▁feasibility	-6017
▁flourishing	-6018
▁fundamental	-6019
▁hemispheres	-6020
▁incessantly	-6021
▁manufacture	-6022
▁observatory	-6023
▁principally	-6024
▁profoundest	-6025
▁projections	-6026
▁proportions	-6027
▁speculation	-6028
▁telegraphic	-6029
▁undertaking	-6030
▁acknowledged	-6031
▁astonishment	-6032
▁circumstance	-6033
▁compensation	-6034
▁difficulties	-6035
▁intellectual	-6036
▁interstellar	-6037
▁measurements	-6038
▁mechanically	-6039
▁organization	-6040
▁participated	-6041
▁requirements	-6042
▁speculations	-6043
▁impossibility	-6044
▁irrepressible	-6045
▁understanding	-6046
▁inhabitability	-6047
▁Tranquillitatis	-6048
/1	-6049
PS	-6050
SS	-6051
gi	-6052
jo	-6053
ym	-6054
.1.	-6055
.3,	-6056
ACE	-6057
ACH	-6058
ACT	-6059
Any	-6060
CON	-6061
ERN	-6062
ESS	-6063
GEN	-6064
ILL	-6065
IND	-6066
ISH	-6067
Nor	-6068
Pto	-6069
Ten	-6070
Too	-6071
VID	-6072
agn	-6073
ago	-6074
avy	-6075
bal	-6076
cir	-6077
dig	-6078
eff	-6079
eon	-6080
hib	-6081
iac	-6082
iag	-6083
ibn	-6084
ibr	-6085
ohn	-6086
ona	-6087
rer	-6088
see	-6089
yen	-6090
ynd	-6091
zac	-6092
▁(1	-6093
▁..	-6094
▁21	-6095
▁3.	-6096
▁37	-6097
▁80	-6098
▁AS	-6099
Mar	-6100
ada	-6101
ait	-6102
ali	-6103
amm	-6104
apo	-6105
chi	-6106
equ	-6107
isc	-6108
▁Oh	-6109
▁PU	-6110
▁Pr	-6111
▁Sm	-6112
▁UT	-6113
▁Up	-6114
!--"	-6115
ABLE	-6116
ARST	-6117
ARTH	-6118
Arch	-6119
Conn	-6120
EMED	-6121
Erat	-6122
Hang	-6123
Here	-6124
IMIT	-6125
Just	-6126
Life	-6127
Moon	-6128
Most	-6129
OULD	-6130
OUTH	-6131
Over	-6132
Seas	-6133
True	-6134
VERY	-6135
When	-6136
alty	-6137
ampa	-6138
arsh	-6139
athy	-6140
atic	-6141
aunt	-6142
bows	-6143
buff	-6144
cchi	-6145
cuse	-6146
dess	-6147
egna	-6148
erne	-6149
from	-6150
gral	-6151
hand	-6152
hist	-6153
horn	-6154
icip	-6155
iego	-6156
iged	-6157
ihil	-6158
inks	-6159
irty	-6160
isby	-6161
kali	-6162
lass	-6163
lers	-6164
life	-6165
mill	-6166
mist	-6167
mmer	-6168
oard	-6169
oked	-6170
olar	-6171
olve	-6172
pled	-6173
rate	-6174
ript	-6175
ruff	-6176
star	-6177
time	-6178
ucle	-6179
ulas	-6180
ulph	-6181
umns	-6182
usky	-6183
vals	-6184
vity	-6185
▁(--	-6186
▁360	-6187
▁40'	-6188
▁450	-6189
▁46'	-6190
▁Ann	-6191
▁App	-6192
▁COM	-6193
▁Cle	-6194
▁Cur	-6195
▁DAM	-6196
▁Den	-6197
▁Des	-6198
▁END	-6199
Low	-6200
imo	-6201
iri	-6202
irs	-6203
net	-6204
omn	-6205
rab	-6206
sea	-6207
urb	-6208
▁Ag	-6209
▁Am	-6210
▁ES	-6211
▁ST	-6212
▁TR	-6213
COND	-6214
alus	-6215
asts	-6216
enes	-6217
idal	-6218
ifer	-6219
iron	-6220
iset	-6221
▁Air	-6222
▁Chr	-6223
▁Esq	-6224
▁Eve	-6225
▁Ger	-6226
▁IMP	-6227
▁LIC	-6228
▁Lun	-6229
▁MAC	-6230
▁Min	-6231
▁Nay	-6232
▁OLD	-6233
▁OUT	-6234
▁Ref	-6235
▁Sor	-6236
▁Sub	-6237
▁Tit	-6238
▁Too	-6239
▁War	-6240
▁Web	-6241
▁bab	-6242
▁bay	-6243
▁bou	-6244
▁bow	-6245
▁bul	-6246
▁cul	-6247
▁deb	-6248
▁gib	-6249
▁haz	-6250
▁hop	-6251
▁ina	-6252
▁jag	-6253
▁jud	-6254
▁lam	-6255
▁mov	-6256
▁ore	-6257
▁pra	-6258
▁pup	-6259
▁rib	-6260
▁roy	-6261
▁sen	-6262
▁sla	-6263
▁tap	-6264
▁ton	-6265
Arist	-6266
Arzac	-6267
ILITY	-6268
Leibn	-6269
Plato	-6270
Still	-6271
Three	-6272
about	-6273
acing	-6274
acity	-6275
agree	-6276
aired	-6277
akers	-6278
antal	-6279
apter	-6280
ardon	-6281
aries	-6282
astly	-6283
atics	-6284
bling	-6285
bonne	-6286
chief	-6287
comed	-6288
cules	-6289
ellig	-6290
eping	-6291
ernal	-6292
erves	-6293
eties	-6294
fraid	-6295
gency	-6296
gging	-6297
henes	-6298
iable	-6299
7,	-6300
VE	-6301
aks	-6302
aky	-6303
asp	-6304
eal	-6305
ech	-6306
ena	-6307
esh	-6308
had	-6309
ned	-6310
oil	-6311
pow	-6312
wed	-6313
▁AG	-6314
▁Ah	-6315
▁Ph	-6316
,--"	-6317
aval	-6318
gian	-6319
ivil	-6320
olly	-6321
omin	-6322
ping	-6323
rapt	-6324
roar	-6325
ugal	-6326
zing	-6327
▁1/8	-6328
▁300	-6329
▁Wat	-6330
▁big	-6331
▁fly	-6332
▁rav	-6333
▁ray	-6334
▁sle	-6335
▁vic	-6336
▁web	-6337
Mille	-6338
aning	-6339
edily	-6340
iacal	-6341
icked	-6342
idium	-6343
imply	-6344
irius	-6345
ishes	-6346
itary	-6347
itous	-6348
lause	-6349
limat	-6350
lunar	-6351
oming	-6352
omson	-6353
ooped	-6354
othed	-6355
pable	-6356
petal	-6357
pless	-6358
plied	-6359
point	-6360
proof	-6361
ptune	-6362
quest	-6363
redit	-6364
ribly	-6365
rophe	-6366
rough	-6367
rowed	-6368
screw	-6369
shine	-6370
sight	-6371
tened	-6372
ulted	-6373
urity	-6374
vices	-6375
wenty	-6376
which	-6377
would	-6378
yenne	-6379
▁1300	-6380
▁Aust	-6381
▁Bear	-6382
▁Boss	-6383
▁Cass	-6384
▁Dant	-6385
▁Didn	-6386
▁FULL	-6387
▁Fahr	-6388
▁Four	-6389
▁John	-6390
▁King	-6391
▁Last	-6392
▁Lord	-6393
▁MORE	-6394
▁Many	-6395
▁Most	-6396
▁Navy	-6397
▁Niag	-6398
▁Open	-6399
!)	-6400
.7	-6401
21	-6402
3)	-6403
62	-6404
AY	-6405
Im	-6406
Py	-6407
RY	-6408
UC	-6409
ma	-6410
ERE	-6411
OUR	-6412
Say	-6413
acr	-6414
aux	-6415
don	-6416
low	-6417
osm	-6418
she	-6419
uis	-6420
▁45	-6421
▁DI	-6422
▁Gr	-6423
ache	-6424
adly	-6425
conj	-6426
ding	-6427
osph	-6428
▁BRE	-6429
▁Bet	-6430
▁Day	-6431
▁Fur	-6432
▁Roy	-6433
▁bag	-6434
▁bas	-6435
▁bat	-6436
▁mil	-6437
▁neb	-6438
▁unw	-6439
aming	-6440
eters	-6441
house	-6442
icism	-6443
oting	-6444
udder	-6445
▁Good	-6446
▁High	-6447
▁Jack	-6448
▁Poss	-6449
▁Pull	-6450
▁Rome	-6451
▁Scot	-6452
▁Stri	-6453
▁Supp	-6454
▁Tynd	-6455
▁Very	-6456
▁Vesu	-6457
▁Vice	-6458
▁arid	-6459
▁bark	-6460
▁bent	-6461
▁born	-6462
▁cham	-6463
▁cher	-6464
▁cock	-6465
▁cook	-6466
▁cour	-6467
▁crit	-6468
▁dign	-6469
▁dome	-6470
▁door	-6471
▁drop	-6472
▁dull	-6473
▁eman	-6474
▁entr	-6475
▁fain	-6476
▁flut	-6477
▁food	-6478
▁halt	-6479
▁hang	-6480
▁hazy	-6481
▁hide	-6482
▁hoax	-6483
▁hove	-6484
▁howl	-6485
▁insp	-6486
▁jack	-6487
▁join	-6488
▁joke	-6489
▁knot	-6490
▁limb	-6491
▁loft	-6492
▁luck	-6493
▁matt	-6494
▁meat	-6495
▁mess	-6496
▁myst	-6497
▁myth	-6498
▁nerv	-6499
aw	-6500
did	-6501
ino	-6502
▁gla	-6503
▁FROM	-6504
▁anch	-6505
▁nois	-6506
▁ones	-6507
▁pall	-6508
▁pier	-6509
▁plat	-6510
▁plut	-6511
▁pock	-6512
▁poet	-6513
▁pomp	-6514
▁pray	-6515
▁pred	-6516
▁rage	-6517
▁rank	-6518
▁rejo	-6519
▁ride	-6520
▁roof	-6521
▁salt	-6522
▁sank	-6523
▁sket	-6524
▁soil	-6525
▁sole	-6526
▁stay	-6527
▁stif	-6528
▁stir	-6529
▁subs	-6530
▁suit	-6531
▁surv	-6532
▁syll	-6533
▁symp	-6534
▁test	-6535
▁tube	-6536
▁user	-6537
▁vall	-6538
▁vari	-6539
▁wake	-6540
▁wave	-6541
▁whis	-6542
▁whom	-6543
▁wine	-6544
▁wire	-6545
ARSTON	-6546
Herald	-6547
IMITED	-6548
Ptolem	-6549
Saturn	-6550
Uranus	-6551
action	-6552
ainted	-6553
anches	-6554
angent	-6555
antage	-6556
apolis	-6557
archus	-6558
arency	-6559
arthly	-6560
castle	-6561
ensive	-6562
ential	-6563
icient	-6564
igrade	-6565
ilarly	-6566
illity	-6567
inally	-6568
indled	-6569
inkage	-6570
intill	-6571
ipment	-6572
isture	-6573
iverse	-6574
liable	-6575
lihood	-6576
morrow	-6577
onious	-6578
ooking	-6579
orated	-6580
orders	-6581
ounter	-6582
perate	-6583
perity	-6584
powder	-6585
rating	-6586
renees	-6587
resist	-6588
rested	-6589
roeter	-6590
should	-6591
soever	-6592
terior	-6593
ucleus	-6594
ulphur	-6595
unless	-6596
veness	-6597
wardly	-6598
▁8,000	-6599
▁About	-6600
▁Black	-6601
▁COULD	-6602
▁Cable	-6603
▁China	-6604
▁Const	-6605
▁DAMAG	-6606
▁Diego	-6607
▁EARTH	-6608
▁EVERY	-6609
▁Field	-6610
▁Green	-6611
▁Hemis	-6612
▁Hills	-6613
▁Homer	-6614
▁House	-6615
▁Never	-6616
▁Owing	-6617
▁Right	-6618
▁SOUTH	-6619
▁SPACE	-6620
▁Saint	-6621
▁Swall	-6622
▁Tampa	-6623
▁Teleg	-6624
▁Under	-6625
▁Verne	-6626
▁While	-6627
▁World	-6628
▁aband	-6629
▁accum	-6630
▁aided	-6631
▁amuse	-6632
▁angle	-6633
▁apply	-6634
▁aside	-6635
▁avoid	-6636
▁birth	-6637
▁blaze	-6638
▁blown	-6639
▁books	-6640
▁cabin	-6641
▁cease	-6642
▁chasm	-6643
▁cocks	-6644
▁crazy	-6645
▁cries	-6646
▁daily	-6647
▁demon	-6648
▁deriv	-6649
▁donke	-6650
▁dried	-6651
▁drops	-6652
▁drunk	-6653
▁eaten	-6654
▁equiv	-6655
▁explo	-6656
▁feast	-6657
▁fewer	-6658
▁fiery	-6659
▁fixed	-6660
▁fleck	-6661
▁fleet	-6662
▁flesh	-6663
▁flood	-6664
▁flung	-6665
▁freer	-6666
▁frequ	-6667
▁goose	-6668
▁grace	-6669
▁grapp	-6670
▁grass	-6671
▁hotel	-6672
▁impet	-6673
▁inert	-6674
▁irrit	-6675
▁links	-6676
▁lived	-6677
▁lives	-6678
▁moleh	-6679
▁newly	-6680
▁noted	-6681
▁offer	-6682
▁oppon	-6683
▁owing	-6684
▁panes	-6685
▁phleg	-6686
▁polar	-6687
▁posts	-6688
▁pound	-6689
▁print	-6690
▁pyram	-6691
▁rails	-6692
▁reapp	-6693
▁regul	-6694
▁remed	-6695
▁rigor	-6696
▁rules	-6697
▁sandy	-6698
▁sangu	-6699
▁shift	-6700
▁ships	-6701
▁simpl	-6702
▁sized	-6703
▁slang	-6704
▁snowy	-6705
▁solic	-6706
▁solve	-6707
▁souls	-6708
▁stage	-6709
▁steer	-6710
▁stiff	-6711
▁subsc	-6712
▁swore	-6713
▁teeth	-6714
▁tenth	-6715
▁theat	-6716
▁tints	-6717
▁trees	-6718
▁trill	-6719
▁unacc	-6720
▁unass	-6721
▁value	-6722
▁versa	-6723
▁wager	-6724
▁winds	-6725
▁wires	-6726
Belfast	-6727
Connell	-6728
Eratost	-6729
Jupiter	-6730
Lambert	-6731
Perhaps	-6732
Science	-6733
another	-6734
avoring	-6735
duction	-6736
egnault	-6737
escence	-6738
estably	-6739
factory	-6740
ication	-6741
idering	-6742
ilities	-6743
irectly	-6744
menting	-6745
ographs	-6746
ortment	-6747
ouraged	-6748
owering	-6749
perigee	-6750
reading	-6751
ributed	-6752
rifugal	-6753
ripetal	-6754
rivance	-6755
rolling	-6756
rometer	-6757
ruffled	-6758
sembled	-6759
theless	-6760
uminium	-6761
umption	-6762
vellous	-6763
versary	-6764
▁(-----	-6765
▁-----)	-6766
▁10,000	-6767
▁15,000	-6768
▁18,000	-6769
▁Christ	-6770
▁Except	-6771
▁France	-6772
▁Frisby	-6773
▁German	-6774
▁Greece	-6775
▁Nature	-6776
▁Newton	-6777
▁Norway	-6778
▁SECOND	-6779
▁Secchi	-6780
▁Sirius	-6781
▁Street	-6782
▁absent	-6783
▁admire	-6784
▁advent	-6785
▁affect	-6786
▁afraid	-6787
▁agency	-6788
▁alkali	-6789
▁amidst	-6790
▁angles	-6791
▁ascent	-6792
▁assure	-6793
▁attain	-6794
▁barren	-6795
▁brings	-6796
▁buried	-6797
▁calmly	-6798
▁canine	-6799
▁capric	-6800
▁charts	-6801
▁chimed	-6802
▁choose	-6803
▁cinder	-6804
▁circul	-6805
▁coasts	-6806
▁coated	-6807
▁consol	-6808
▁copper	-6809
▁couldn	-6810
▁crests	-6811
▁cultiv	-6812
▁darker	-6813
▁decept	-6814
▁decomp	-6815
▁denied	-6816
▁desert	-6817
▁devote	-6818
▁divers	-6819
▁dollar	-6820
▁donate	-6821
▁dreary	-6822
▁driven	-6823
▁effulg	-6824
▁eleven	-6825
▁energy	-6826
▁entity	-6827
▁events	-6828
▁exclus	-6829
▁excuse	-6830
▁exists	-6831
▁explor	-6832
▁fasten	-6833
▁finger	-6834
▁finish	-6835
▁flakes	-6836
▁flight	-6837
▁forced	-6838
▁freeze	-6839
▁frozen	-6840
▁futile	-6841
▁gibber	-6842
▁glassy	-6843
▁groans	-6844
▁guests	-6845
▁hammer	-6846
▁hearty	-6847
▁hollow	-6848
▁honest	-6849
▁incont	-6850
▁insens	-6851
▁interf	-6852
▁invent	-6853
▁jagged	-6854
▁joined	-6855
▁jumped	-6856
▁ladies	-6857
▁lashed	-6858
▁launch	-6859
▁liable	-6860
▁limits	-6861
▁lovely	-6862
▁mainly	-6863
▁martyr	-6864
▁melted	-6865
▁mirror	-6866
▁modern	-6867
▁namely	-6868
▁nation	-6869
▁native	-6870
▁nobody	-6871
▁orange	-6872
▁palace	-6873
▁patron	-6874
▁plough	-6875
▁powers	-6876
▁prodig	-6877
▁propri	-6878
▁pulled	-6879
▁purely	-6880
▁purest	-6881
▁purity	-6882
▁pursue	-6883
▁pushed	-6884
▁recoil	-6885
▁retain	-6886
▁satisf	-6887
▁scenes	-6888
▁sealed	-6889
▁seated	-6890
▁secure	-6891
▁series	-6892
▁shaken	-6893
▁sheets	-6894
▁shiver	-6895
▁shroud	-6896
▁slopes	-6897
▁softly	-6898
▁stored	-6899
▁sunken	-6900
▁tender	-6901
▁thanks	-6902
▁throat	-6903
▁throng	-6904
▁uneasy	-6905
▁united	-6906
▁uproar	-6907
▁useful	-6908
▁varied	-6909
▁walled	-6910
▁watery	-6911
▁weighs	-6912
▁wiping	-6913
▁yelled	-6914
▁yellow	-6915
Arzachel	-6916
Leibnitz	-6917
Probably	-6918
allation	-6919
astrophe	-6920
ceptible	-6921
entlemen	-6922
hibition	-6923
historic	-6924
ignation	-6925
ihilated	-6926
inations	-6927
onderful	-6928
plicable	-6929
reshment	-6930
ternally	-6931
▁Academy	-6932
▁Because	-6933
▁Between	-6934
▁Cassini	-6935
▁Clubmen	-6936
▁Crisium	-6937
▁Everest	-6938
▁Further	-6939
▁Instead	-6940
▁Iridium	-6941
▁LICENSE	-6942
▁LIMITED	-6943
▁MARSTON	-6944
▁Neither	-6945
▁Niagara	-6946
▁Sierras	-6947
▁Society	-6948
▁Thomson	-6949
▁Through	-6950
▁Tyndall	-6951
▁Watkins	-6952
▁Western	-6953
▁Whether	-6954
▁abysses	-6955
▁advised	-6956
▁answers	-6957
▁anticip	-6958
▁arguing	-6959
▁articul	-6960
▁average	-6961
▁balance	-6962
▁ballast	-6963
▁banquet	-6964
▁bravely	-6965
▁breadth	-6966
▁buffers	-6967
▁changed	-6968
▁chapter	-6969
▁charged	-6970
▁claimed	-6971
▁columns	-6972
▁compels	-6973
▁concept	-6974
▁contain	-6975
▁corners	-6976
▁darkest	-6977
▁defined	-6978
▁density	-6979
▁depends	-6980
▁descend	-6981
▁desires	-6982
▁earlier	-6983
▁economy	-6984
▁elastic	-6985
▁eminent	-6986
▁enlight	-6987
▁extends	-6988
▁fancies	-6989
▁fathoms	-6990
▁feather	-6991
▁fingers	-6992
▁fortune	-6993
▁furious	-6994
▁furnish	-6995
▁gallant	-6996
▁ghastly	-6997
▁glimmer	-6998
▁glowing	-6999
▁goddess	-7000
▁gradual	-7001
▁grandly	-7002
▁gratify	-7003
▁growing	-7004
▁hauling	-7005
▁healthy	-7006
▁hearers	-7007
▁hearing	-7008
▁heaving	-7009
▁howling	-7010
▁joining	-7011
▁justice	-7012
▁kingdom	-7013
▁knocked	-7014
▁leading	-7015
▁library	-7016
▁license	-7017
▁looming	-7018
▁mingled	-7019
▁mission	-7020
▁mixture	-7021
▁monoton	-7022
▁movable	-7023
▁nervous	-7024
▁network	-7025
▁obliged	-7026
▁opening	-7027
▁painted	-7028
▁parties	-7029
▁peering	-7030
▁physics	-7031
▁pleases	-7032
▁prolong	-7033
▁pursued	-7034
▁raising	-7035
▁ravines	-7036
▁realize	-7037
▁reliefs	-7038
▁resolut	-7039
▁respons	-7040
▁resting	-7041
▁roaring	-7042
▁roughly	-7043
▁sailors	-7044
▁serving	-7045
▁sharply	-7046
▁shortly	-7047
▁signals	-7048
▁sitting	-7049
▁slipped	-7050
▁steeped	-7051
▁strikes	-7052
▁suggest	-7053
▁sulphur	-7054
▁tablets	-7055
▁tempers	-7056
▁thereby	-7057
▁univers	-7058
▁unsatis	-7059
▁upright	-7060
▁valleys	-7061
▁varying	-7062
▁viewing	-7063
▁vividly	-7064
▁volumes	-7065
▁waiting	-7066
▁warmest	-7067
▁warning	-7068
▁warrant	-7069
▁watched	-7070
▁whereas	-7071
▁whirled	-7072
agreeable	-7073
alculable	-7074
avigation	-7075
cientific	-7076
eccentric	-7077
pillikins	-7078
pressibly	-7079
▁Cheyenne	-7080
▁Director	-7081
▁Possibly	-7082
▁Pouillet	-7083
▁Sorbonne	-7084
▁Vesuvius	-7085
▁abundant	-7086
▁accepted	-7087
▁accurate	-7088
▁admitted	-7089
▁aerolite	-7090
▁alarming	-7091
▁allowing	-7092
▁arrested	-7093
▁articles	-7094
▁asperity	-7095
▁blasting	-7096
▁building	-7097
▁bursting	-7098
▁calmness	-7099
▁cavities	-7100
▁chambers	-7101
▁channels	-7102
▁charming	-7103
▁chickens	-7104
▁chlorate	-7105
▁clapping	-7106
▁contents	-7107
▁coolness	-7108
▁crashing	-7109
▁creating	-7110
▁deserved	-7111
▁destined	-7112
▁dispense	-7113
▁draughts	-7114
▁eighteen	-7115
▁enjoying	-7116
▁equality	-7117
▁eruption	-7118
▁escaping	-7119
▁exterior	-7120
▁facility	-7121
▁fanciful	-7122
▁fiercely	-7123
▁fissures	-7124
▁function	-7125
▁glimpses	-7126
▁greedily	-7127
▁heaviest	-7128
▁helpless	-7129
▁hencefor	-7130
▁illusion	-7131
▁imagined	-7132
▁imparted	-7133
▁improved	-7134
▁included	-7135
▁increase	-7136
▁infernal	-7137
▁inflated	-7138
▁irresist	-7139
▁isolated	-7140
▁lighting	-7141
▁listened	-7142
▁magnetic	-7143
▁majestic	-7144
▁moisture	-7145
▁monotony	-7146
▁muscular	-7147
▁nitrogen	-7148
▁outlined	-7149
▁passions	-7150
▁pathless	-7151
▁payments	-7152
▁plutonic	-7153
▁presents	-7154
▁probable	-7155
▁property	-7156
▁rattling	-7157
▁receives	-7158
▁recovery	-7159
▁reported	-7160
▁retarded	-7161
▁roasting	-7162
▁romantic	-7163
▁sanguine	-7164
▁scintill	-7165
▁selected	-7166
▁sensibly	-7167
▁sentence	-7168
▁separate	-7169
▁services	-7170
▁shouting	-7171
▁shrieked	-7172
▁sparkled	-7173
▁stoicism	-7174
▁streaked	-7175
▁struggle	-7176
▁subjects	-7177
▁suitable	-7178
▁superfic	-7179
▁telegrap	-7180
▁tempered	-7181
▁terribly	-7182
▁thrilled	-7183
▁troubled	-7184
▁universe	-7185
▁uttering	-7186
▁welcomed	-7187
▁whirling	-7188
▁windlass	-7189
▁wondrous	-7190
▁wrinkled	-7191
Archimedes	-7192
everything	-7193
responding	-7194
▁Annapolis	-7195
▁Naturally	-7196
▁Peninsula	-7197
▁Schroeter	-7198
▁Something	-7199
▁Supposing	-7200
▁Telegraph	-7201
▁accompany	-7202
▁adversary	-7203
▁advisable	-7204
▁aluminium	-7205
▁analogous	-7206
▁animation	-7207
▁answering	-7208
▁appalling	-7209
▁apprehend	-7210
▁asteroids	-7211
▁astounded	-7212
▁astronomy	-7213
▁attempted	-7214
▁attitudes	-7215
▁attracted	-7216
▁authority	-7217
▁beholding	-7218
▁belonging	-7219
▁betraying	-7220
▁blistered	-7221
▁cavernous	-7222
▁committee	-7223
▁compelled	-7224
▁complying	-7225
▁connected	-7226
▁construct	-7227
▁consulted	-7228
▁countless	-7229
▁deathlike	-7230
▁defective	-7231
▁designate	-7232
▁desperate	-7233
▁disgusted	-7234
▁diverging	-7235
▁downwards	-7236
▁earnestly	-7237
▁elsewhere	-7238
▁employing	-7239
▁encounter	-7240
▁engrossed	-7241
▁enveloped	-7242
▁equipment	-7243
▁estimated	-7244
▁examining	-7245
▁excessive	-7246
▁execution	-7247
▁expressly	-7248
▁extensive	-7249
▁extremity	-7250
▁flattened	-7251
▁gunpowder	-7252
▁happiness	-7253
▁ignorance	-7254
▁impatient	-7255
▁impressed	-7256
▁incidents	-7257
▁interrupt	-7258
▁intervals	-7259
▁liability	-7260
▁listeners	-7261
▁molecules	-7262
▁movements	-7263
▁muttering	-7264
▁obliquely	-7265
▁obliquity	-7266
▁obscurity	-7267
▁obtaining	-7268
▁operating	-7269
▁organized	-7270
▁partially	-7271
▁particles	-7272
▁permitted	-7273
▁persisted	-7274
▁philosoph	-7275
▁powerless	-7276
▁preparing	-7277
▁prevailed	-7278
▁prisoners	-7279
▁reference	-7280
▁reflector	-7281
▁refracted	-7282
▁reminding	-7283
▁sensation	-7284
▁senseless	-7285
▁separated	-7286
▁seventeen	-7287
▁shrinkage	-7288
▁shrugging	-7289
▁simpleton	-7290
▁soundless	-7291
▁splitting	-7292
▁steamboat	-7293
▁stretched	-7294
▁substance	-7295
▁sustained	-7296
▁temporary	-7297
▁thrilling	-7298
▁transport	-7299
▁triumphal	-7300
▁unanimous	-7301
▁unruffled	-7302
▁wondering	-7303
Aristarchus	-7304
urmountable	-7305
▁Hemisphere	-7306
▁University	-7307
▁acquainted	-7308
▁admiringly	-7309
▁assistance	-7310
▁astonished	-7311
▁bottomless	-7312
▁brilliancy	-7313
▁celebrated	-7314
▁centigrade	-7315
▁cheerfully	-7316
▁concerning	-7317
▁connection	-7318
▁conscience	-7319
▁convenient	-7320
▁conviction	-7321
▁derivative	-7322
▁elliptical	-7323
▁endeavored	-7324
▁equivalent	-7325
▁everywhere	-7326
▁exclaiming	-7327
▁forecastle	-7328
▁frequently	-7329
▁hypotheses	-7330
▁influenced	-7331
▁invaluable	-7332
▁likelihood	-7333
▁limitation	-7334
▁marvellous	-7335
▁mechanical	-7336
▁neutralize	-7337
▁nineteenth	-7338
▁paragraphs	-7339
▁perihelion	-7340
▁perplexity	-7341
▁philosophy	-7342
▁previously	-7343
▁principles	-7344
▁profoundly	-7345
▁signalling	-7346
▁spectacles	-7347
▁spectators	-7348
▁stretching	-7349
▁subsidence	-7350
▁substances	-7351
▁sustaining	-7352
▁transition	-7353
▁unequalled	-7354
▁variations	-7355
▁vigorously	-7356
▁whatsoever	-7357
Eratosthenes	-7358
eccentricity	-7359
▁accumulated	-7360
▁alternative	-7361
▁annihilated	-7362
▁appreciable	-7363
▁ascertained	-7364
▁bewildering	-7365
▁centrifugal	-7366
▁combination	-7367
▁communicate	-7368
▁comparative	-7369
▁depressions	-7370
▁diminishing	-7371
▁discovering	-7372
▁endeavoring	-7373
▁exceptional	-7374
▁expressions	-7375
▁impressions	-7376
▁improvement	-7377
▁necessarily	-7378
▁parallelism	-7379
▁performance	-7380
▁picturesque	-7381
▁prehistoric	-7382
▁proposition	-7383
▁redistribut	-7384
▁refreshment	-7385
▁replacement	-7386
▁resemblance	-7387
▁respectable	-7388
▁speculative	-7389
▁arrangements	-7390
▁congratulate	-7391
▁disagreeable	-7392
▁incalculable	-7393
▁indefinitely	-7394
▁inexplicable	-7395
▁intersection	-7396
▁modification	-7397
▁philosophers	-7398
▁preparations	-7399
▁respectfully	-7400
▁tranquillity	-7401
▁transparency	-7402
▁unassailable	-7403
▁contemplation	-7404
▁determination	-7405
▁disappearance	-7406
▁gesticulating	-7407
▁inconceivable	-7408
▁inexpressibly	-7409
▁instantaneous	-7410
▁peculiarities	-7411
▁recollections	-7412
▁selenographic	-7413
▁topographical	-7414
▁unsatisfactory	-7415
-18	-7416
.8.	-7417
712	-7418
AKE	-7419
ANA	-7420
ARD	-7421
ARY	-7422
ASH	-7423
ATH	-7424
CHO	-7425
EEL	-7426
EEN	-7427
ELD	-7428
EWS	-7429
FOR	-7430
IME	-7431
IVE	-7432
LLU	-7433
MSE	-7434
OOK	-7435
OSE	-7436
OUN	-7437
RAL	-7438
THE	-7439
TLE	-7440
UAL	-7441
UES	-7442
UNG	-7443
URN	-7444
VES	-7445
VIS	-7446
ohr	-7447
pgd	-7448
▁6,	-7449
▁7'	-7450
▁75	-7451
▁84	-7452
▁87	-7453
-1/4	-7454
ACAL	-7455
AINS	-7456
ALOO	-7457
AREW	-7458
ATCH	-7459
Alph	-7460
Alps	-7461
Camp	-7462
EMON	-7463
FORT	-7464
HITE	-7465
IELD	-7466
IFIC	-7467
ISPH	-7468
LASH	-7469
LEEP	-7470
LVES	-7471
NELL	-7472
OUNT	-7473
Once	-7474
PPED	-7475
PSES	-7476
Phil	-7477
Pico	-7478
Read	-7479
TIES	-7480
TIVE	-7481
UITE	-7482
YCHO	-7483
YGEN	-7484
aldi	-7485
ankl	-7486
boys	-7487
bris	-7488
cosm	-7489
eyed	-7490
furt	-7491
hosp	-7492
inny	-7493
irie	-7494
llah	-7495
ocke	-7496
onym	-7497
pgdp	-7498
riek	-7499
ANC	-7500
ENN	-7501
ROU	-7502
UCT	-7503
ewy	-7504
iae	-7505
ugo	-7506
ANCY	-7507
ENNI	-7508
ROUP	-7509
oudy	-7510
tric	-7511
ttle	-7512
uddy	-7513
uvre	-7514
vets	-7515
yees	-7516
ynam	-7517
yons	-7518
▁10.	-7519
▁113	-7520
▁184	-7521
▁37'	-7522
▁750	-7523
▁ASC	-7524
▁BAT	-7525
▁BIR	-7526
▁COR	-7527
▁DAY	-7528
▁DON	-7529
▁Egy	-7530
▁Elk	-7531
▁HEL	-7532
▁HEM	-7533
▁HOW	-7534
▁III	-7535
▁INC	-7536
▁Imp	-7537
▁Kal	-7538
▁LAN	-7539
▁Lec	-7540
▁Mob	-7541
▁Nev	-7542
▁PAC	-7543
▁REP	-7544
▁TAK	-7545
▁Unf	-7546
▁VII	-7547
▁XXI	-7548
▁awa	-7549
▁aye	-7550
▁cyn	-7551
▁gna	-7552
▁hyd	-7553
▁max	-7554
▁rip	-7555
▁tea	-7556
16457	-7557
Alpet	-7558
COVER	-7559
Doing	-7560
EDUCT	-7561
EMONI	-7562
Euler	-7563
Exact	-7564
FIELD	-7565
First	-7566
Hercy	-7567
INARY	-7568
MENSE	-7569
Moret	-7570
Palus	-7571
Plain	-7572
Speak	-7573
TIONS	-7574
Thank	-7575
ULLAB	-7576
UNGRY	-7577
UTRAL	-7578
Venus	-7579
addle	-7580
anese	-7581
arned	-7582
arrel	-7583
ascal	-7584
asped	-7585
essrs	-7586
ghens	-7587
haust	-7588
hilar	-7589
hilus	-7590
idden	-7591
iliar	-7592
incts	-7593
iries	-7594
lowly	-7595
nonym	-7596
north	-7597
oresc	-7598
piece	-7599
▁5.	-7600
▁54	-7601
exas	-7602
▁Fec	-7603
▁Isn	-7604
▁Maj	-7605
▁PRE	-7606
▁Van	-7607
▁Vir	-7608
▁Vol	-7609
ITHER	-7610
aples	-7611
ivity	-7612
orrig	-7613
ralia	-7614
rames	-7615
ratic	-7616
renzy	-7617
rills	-7618
rison	-7619
rooke	-7620
ruith	-7621
tured	-7622
ulius	-7623
urier	-7624
▁----	-7625
▁..."	-7626
▁1500	-7627
▁1861	-7628
▁1862	-7629
▁40''	-7630
▁Afra	-7631
▁Alas	-7632
▁Alps	-7633
▁Apri	-7634
▁Asia	-7635
▁BACK	-7636
▁BEAR	-7637
▁BIRD	-7638
▁Brob	-7639
▁CENT	-7640
▁Chap	-7641
▁Cold	-7642
▁DAYS	-7643
▁Dewy	-7644
▁Etna	-7645
▁FACT	-7646
▁FEEL	-7647
▁FIFT	-7648
▁FISH	-7649
▁FREE	-7650
▁Fert	-7651
▁GLIM	-7652
▁HEAD	-7653
▁HOUR	-7654
▁ILLU	-7655
▁LAND	-7656
▁LITT	-7657
▁Lohr	-7658
▁MAKE	-7659
▁NEWS	-7660
▁Once	-7661
▁POIN	-7662
▁POOR	-7663
▁Raph	-7664
▁Read	-7665
▁Somn	-7666
▁Sons	-7667
▁THAN	-7668
▁VIEW	-7669
▁Virg	-7670
▁WIND	-7671
▁WINS	-7672
▁WORD	-7673
▁WORK	-7674
▁Whar	-7675
▁XVII	-7676
▁XXII	-7677
▁aggl	-7678
▁audi	-7679
▁ausp	-7680
▁bann	-7681
▁bird	-7682
▁caut	-7683
▁culm	-7684
▁cups	-7685
▁demi	-7686
▁educ	-7687
▁fash	-7688
▁fogs	-7689
▁fool	-7690
▁gulf	-7691
▁hank	-7692
▁helm	-7693
▁idle	-7694
▁ills	-7695
▁insc	-7696
▁lady	-7697
▁orbs	-7698
▁owed	-7699
▁3,	-7700
▁33	-7701
▁UN	-7702
Fair	-7703
airs	-7704
eged	-7705
gods	-7706
move	-7707
▁---	-7708
▁Adv	-7709
▁COA	-7710
▁Spr	-7711
▁Use	-7712
▁XIX	-7713
▁ult	-7714
NOUGH	-7715
anama	-7716
ancan	-7717
anche	-7718
elena	-7719
shell	-7720
vians	-7721
▁4000	-7722
▁Eucl	-7723
▁Fair	-7724
▁dict	-7725
▁fury	-7726
▁palm	-7727
▁pane	-7728
▁plug	-7729
▁prim	-7730
▁puls	-7731
▁ruin	-7732
▁semb	-7733
▁sets	-7734
▁skin	-7735
▁summ	-7736
▁tomb	-7737
▁tune	-7738
▁verd	-7739
▁watc	-7740
Alphon	-7741
Answer	-7742
Excuse	-7743
Hercyn	-7744
ITTING	-7745
Kepler	-7746
LUTION	-7747
Listen	-7748
MMENSE	-7749
SCAPED	-7750
SCAPES	-7751
SSIBLE	-7752
Twenty	-7753
UCTIVE	-7754
ancial	-7755
anship	-7756
aposel	-7757
arging	-7758
arrass	-7759
aspian	-7760
ceived	-7761
ckered	-7762
editer	-7763
efined	-7764
engers	-7765
erfect	-7766
headed	-7767
ichest	-7768
icians	-7769
illery	-7770
illsby	-7771
istics	-7772
ivided	-7773
lights	-7774
mistak	-7775
necess	-7776
omfort	-7777
oughed	-7778
ovians	-7779
passes	-7780
pieces	-7781
plicit	-7782
pretty	-7783
prison	-7784
ragius	-7785
ribute	-7786
riment	-7787
rimony	-7788
rocosm	-7789
rooves	-7790
ruithu	-7791
strick	-7792
struct	-7793
uicker	-7794
ulsive	-7795
ulties	-7796
ultory	-7797
undrum	-7798
uously	-7799
fts	-7800
▁32	-7801
▁81	-7802
INGS	-7803
appy	-7804
dign	-7805
fall	-7806
hyth	-7807
lete	-7808
▁11.	-7809
▁HER	-7810
▁HIM	-7811
▁Jap	-7812
▁blu	-7813
▁gri	-7814
▁odd	-7815
▁pip	-7816
hythm	-7817
pests	-7818
quiet	-7819
▁1600	-7820
▁Down	-7821
▁Half	-7822
▁Jard	-7823
▁dial	-7824
▁emot	-7825
▁mead	-7826
▁pave	-7827
▁sphe	-7828
atives	-7829
dignag	-7830
illars	-7831
ronomy	-7832
uspend	-7833
worked	-7834
yghens	-7835
▁2-1/2	-7836
▁6,000	-7837
▁AGREE	-7838
▁ASCII	-7839
▁Adieu	-7840
▁Angel	-7841
▁Apoll	-7842
▁Arago	-7843
▁Barby	-7844
▁Being	-7845
▁CATCH	-7846
▁COAST	-7847
▁Close	-7848
▁Coast	-7849
▁Color	-7850
▁DIANA	-7851
▁Dante	-7852
▁Doing	-7853
▁EBOOK	-7854
▁EBook	-7855
▁Egypt	-7856
▁Error	-7857
▁Ester	-7858
▁FANCY	-7859
▁FAREW	-7860
▁FIGHT	-7861
▁FLASH	-7862
▁GROUP	-7863
▁INSTR	-7864
▁India	-7865
▁Judge	-7866
▁Latin	-7867
▁MOUNT	-7868
▁Major	-7869
▁Mayor	-7870
▁POINT	-7871
▁Proof	-7872
▁START	-7873
▁Secon	-7874
▁Small	-7875
▁State	-7876
▁THEIR	-7877
▁TYCHO	-7878
▁Terms	-7879
▁Terra	-7880
▁Thing	-7881
▁UNION	-7882
▁UTTER	-7883
▁Ullah	-7884
▁WHITE	-7885
▁WINGS	-7886
▁Wharf	-7887
▁Works	-7888
▁XVIII	-7889
▁XXIII	-7890
▁abyss	-7891
▁adieu	-7892
▁aeron	-7893
▁ample	-7894
▁argue	-7895
▁beats	-7896
▁benef	-7897
▁blank	-7898
▁blows	-7899
DY	-7900
mo	-7901
"--	-7902
300	-7903
500	-7904
ODY	-7905
eam	-7906
iny	-7907
ips	-7908
▁2,	-7909
▁43	-7910
▁Bu	-7911
▁ww	-7912
,500	-7913
ague	-7914
high	-7915
ipel	-7916
iput	-7917
ribe	-7918
sang	-7919
wood	-7920
ysen	-7921
▁Yak	-7922
▁hue	-7923
▁jet	-7924
▁rue	-7925
▁vap	-7926
▁www	-7927
Never	-7928
Short	-7929
Theop	-7930
arden	-7931
mwood	-7932
reens	-7933
rican	-7934
walks	-7935
▁BODY	-7936
▁Team	-7937
▁Year	-7938
▁airs	-7939
▁amaz	-7940
▁aval	-7941
▁bets	-7942
▁calf	-7943
▁cens	-7944
▁corn	-7945
▁ferv	-7946
▁pang	-7947
▁rely	-7948
icting	-7949
igning	-7950
otting	-7951
verish	-7952
▁Peter	-7953
▁alman	-7954
▁bowed	-7955
▁boxes	-7956
▁burns	-7957
▁cargo	-7958
▁carri	-7959
▁catac	-7960
▁caust	-7961
▁claim	-7962
▁climb	-7963
▁coals	-7964
▁coeff	-7965
▁costs	-7966
▁crags	-7967
▁decre	-7968
▁dimly	-7969
▁dusky	-7970
▁dwell	-7971
▁elong	-7972
▁endur	-7973
▁engra	-7974
▁entry	-7975
▁exert	-7976
▁exped	-7977
▁facul	-7978
▁femin	-7979
▁fifth	-7980
▁files	-7981
▁fluid	-7982
▁fools	-7983
▁funct	-7984
▁glaci	-7985
▁guide	-7986
▁handy	-7987
▁harsh	-7988
▁honey	-7989
▁inatt	-7990
▁intro	-7991
▁invar	-7992
▁irreg	-7993
▁jokes	-7994
▁jumps	-7995
▁knots	-7996
▁lamps	-7997
▁major	-7998
▁march	-7999
Go	-8000
fe	-8001
azy	-8002
ban	-8003
che	-8004
gar	-8005
loo	-8006
ogs	-8007
▁RE	-8008
▁Ro	-8009
▁ju	-8010
Call	-8011
RIED	-8012
agne	-8013
hazy	-8014
igns	-8015
itor	-8016
phic	-8017
▁HOM	-8018
▁Rap	-8019
▁Red	-8020
▁Rut	-8021
▁XII	-8022
▁cub	-8023
▁row	-8024
after	-8025
ignif	-8026
imate	-8027
mento	-8028
mount	-8029
oodle	-8030
oseph	-8031
unted	-8032
yards	-8033
▁HOME	-8034
▁Heat	-8035
▁Iron	-8036
▁bust	-8037
▁fled	-8038
▁holy	-8039
▁leag	-8040
▁resc	-8041
▁sees	-8042
▁symb	-8043
▁unav	-8044
Should	-8045
enched	-8046
essors	-8047
ounted	-8048
urbach	-8049
verted	-8050
▁CRIED	-8051
▁Mater	-8052
▁cubic	-8053
▁decla	-8054
▁grain	-8055
▁meets	-8056
▁merry	-8057
▁metal	-8058
▁moons	-8059
▁moral	-8060
▁motto	-8061
▁named	-8062
▁necks	-8063
▁peace	-8064
▁pipes	-8065
▁pitil	-8066
▁plaus	-8067
▁plugs	-8068
▁plumb	-8069
▁polit	-8070
▁pride	-8071
▁pupil	-8072
▁quack	-8073
▁quits	-8074
▁raise	-8075
▁rates	-8076
▁realm	-8077
▁repro	-8078
▁rigid	-8079
▁rills	-8080
▁scaph	-8081
▁shone	-8082
▁sixth	-8083
▁sixty	-8084
▁skirt	-8085
▁slept	-8086
▁slumb	-8087
▁sneer	-8088
▁stagn	-8089
▁stamp	-8090
▁stere	-8091
▁stony	-8092
▁stump	-8093
▁sugar	-8094
▁sunse	-8095
▁swamp	-8096
▁swarm	-8097
▁swear	-8098
▁swept	-8099
mi	-8100
mn	-8101
-16	-8102
.'"	-8103
lys	-8104
mpt	-8105
▁55	-8106
▁Dr	-8107
▁Po	-8108
Fire	-8109
anic	-8110
eled	-8111
enly	-8112
gone	-8113
rans	-8114
▁480	-8115
▁God	-8116
▁adj	-8117
▁jew	-8118
▁mud	-8119
▁omn	-8120
agine	-8121
estro	-8122
olves	-8123
urate	-8124
utted	-8125
▁Desc	-8126
▁Hire	-8127
▁eleg	-8128
▁enum	-8129
▁game	-8130
▁lone	-8131
▁pine	-8132
▁semi	-8133
▁sway	-8134
▁vine	-8135
▁wore	-8136
Valley	-8137
icance	-8138
▁Broad	-8139
▁Rains	-8140
▁atten	-8141
▁dated	-8142
▁indic	-8143
▁issue	-8144
▁liber	-8145
▁lifet	-8146
▁nails	-8147
▁overt	-8148
▁swung	-8149
▁taste	-8150
▁tears	-8151
▁tests	-8152
▁tinge	-8153
▁truly	-8154
▁trump	-8155
▁trust	-8156
▁turns	-8157
▁unavo	-8158
▁uneas	-8159
▁utens	-8160
▁vital	-8161
▁wheel	-8162
▁wiped	-8163
▁wiser	-8164
▁yells	-8165
Exactly	-8166
LITTING	-8167
Marston	-8168
Mercury	-8169
Moretus	-8170
Neptune	-8171
OSSIBLE	-8172
Ptolemy	-8173
Talking	-8174
Thunder	-8175
Towards	-8176
VATIONS	-8177
Without	-8178
addened	-8179
ampagne	-8180
andered	-8181
astrous	-8182
breadth	-8183
cieties	-8184
estling	-8185
fulness	-8186
further	-8187
grooves	-8188
hedding	-8189
ictions	-8190
ilarity	-8191
illiput	-8192
inction	-8193
iration	-8194
istingu	-8195
kindled	-8196
manship	-8197
mitting	-8198
ologist	-8199
Co	-8200
(3)	-8201
alk	-8202
col	-8203
xed	-8204
▁GA	-8205
▁GO	-8206
▁LI	-8207
)(3)	-8208
Pass	-8209
acra	-8210
acus	-8211
asso	-8212
ello	-8213
igar	-8214
neys	-8215
odes	-8216
veig	-8217
wich	-8218
▁Bac	-8219
▁Cop	-8220
▁Out	-8221
▁arm	-8222
▁kne	-8223
▁non	-8224
Hello	-8225
Lacus	-8226
Mount	-8227
Their	-8228
ighed	-8229
imson	-8230
iving	-8231
mitig	-8232
nance	-8233
ouvre	-8234
oving	-8235
uated	-8236
▁****	-8237
▁Know	-8238
▁Mort	-8239
▁Tell	-8240
▁cars	-8241
▁date	-8242
▁gear	-8243
▁glow	-8244
▁tray	-8245
adence	-8246
atched	-8247
elling	-8248
incont	-8249
velled	-8250
vingly	-8251
▁*****	-8252
▁Sacra	-8253
▁chant	-8254
▁cigar	-8255
▁deton	-8256
▁satur	-8257
▁strat	-8258
▁trail	-8259
ousands	-8260
racting	-8261
riously	-8262
ruption	-8263
selfish	-8264
thought	-8265
umbered	-8266
umbling	-8267
ustomed	-8268
ustrous	-8269
uyghens	-8270
vantage	-8271
veigled	-8272
▁16,000	-8273
▁20,000	-8274
▁48,000	-8275
▁ASLEEP	-8276
▁Angelo	-8277
▁Apollo	-8278
▁BATTLE	-8279
▁BREACH	-8280
▁Calcul	-8281
▁Castle	-8282
▁Change	-8283
▁Cimmer	-8284
▁Cloudy	-8285
▁Crises	-8286
▁DEMONI	-8287
▁Direct	-8288
▁During	-8289
▁EITHER	-8290
▁Erfurt	-8291
▁Euclid	-8292
▁Fecund	-8293
▁Frankl	-8294
▁HELPED	-8295
▁HUNGRY	-8296
▁Heaven	-8297
▁Helena	-8298
▁Humors	-8299
abs	-8300
ste	-8301
▁60	-8302
Sacr	-8303
abal	-8304
abun	-8305
cide	-8306
ftly	-8307
itic	-8308
itut	-8309
onte	-8310
real	-8311
reek	-8312
then	-8313
tive	-8314
vard	-8315
▁Hot	-8316
▁Mab	-8317
Monte	-8318
anite	-8319
ckets	-8320
enery	-8321
isive	-8322
quite	-8323
riend	-8324
utive	-8325
voirs	-8326
▁Each	-8327
▁Fort	-8328
▁Hard	-8329
▁None	-8330
▁Port	-8331
▁bite	-8332
▁deem	-8333
▁hook	-8334
▁hull	-8335
▁item	-8336
▁plun	-8337
Little	-8338
ROPPED	-8339
Softly	-8340
abaloo	-8341
acting	-8342
arding	-8343
friend	-8344
icable	-8345
incide	-8346
steaks	-8347
utable	-8348
warded	-8349
▁Grand	-8350
▁adequ	-8351
▁brass	-8352
▁forms	-8353
▁ghost	-8354
▁intol	-8355
▁spend	-8356
OLUTION	-8357
besides	-8358
inkling	-8359
romised	-8360
screwed	-8361
▁Joseph	-8362
▁Julius	-8363
▁Kepler	-8364
▁LITTLE	-8365
▁Lecout	-8366
▁Listen	-8367
▁Mechan	-8368
▁Messrs	-8369
▁Naples	-8370
▁Nearer	-8371
▁Nevada	-8372
▁Online	-8373
▁PRELIM	-8374
▁Panama	-8375
▁Pascal	-8376
▁Pretty	-8377
▁Prince	-8378
▁Reiset	-8379
▁Rivers	-8380
▁SEEMED	-8381
▁Second	-8382
▁Sierra	-8383
▁Simply	-8384
▁Slowly	-8385
▁Spring	-8386
▁THEMSE	-8387
▁Thanks	-8388
▁Things	-8389
▁Unless	-8390
▁aboard	-8391
▁aching	-8392
▁adjour	-8393
▁admiss	-8394
▁advice	-8395
▁annals	-8396
▁arches	-8397
▁archit	-8398
▁babies	-8399
LA	-8400
??"	-8401
aer	-8402
ese	-8403
▁1,	-8404
▁4.	-8405
▁EX	-8406
Even	-8407
Give	-8408
Hand	-8409
aked	-8410
amus	-8411
obos	-8412
your	-8413
▁bob	-8414
▁enl	-8415
▁env	-8416
▁nod	-8417
▁rup	-8418
▁wag	-8419
▁woo	-8420
andum	-8421
found	-8422
peris	-8423
reced	-8424
ugust	-8425
▁Care	-8426
▁Hart	-8427
▁West	-8428
▁aven	-8429
▁cane	-8430
▁canv	-8431
▁cate	-8432
▁ends	-8433
▁hing	-8434
▁omin	-8435
▁oven	-8436
▁peac	-8437
▁prow	-8438
▁sold	-8439
anding	-8440
erment	-8441
forese	-8442
▁Lobos	-8443
▁NIGHT	-8444
▁categ	-8445
▁ended	-8446
▁impal	-8447
▁inopp	-8448
▁legal	-8449
▁shrew	-8450
▁spare	-8451
▁walks	-8452
▁woods	-8453
Friends	-8454
iveness	-8455
ressive	-8456
▁August	-8457
▁Virgil	-8458
▁attent	-8459
▁backed	-8460
▁banged	-8461
▁bathed	-8462
▁batter	-8463
▁beauty	-8464
▁behalf	-8465
▁belief	-8466
▁bitter	-8467
▁bluish	-8468
▁boldly	-8469
▁breaks	-8470
▁burner	-8471
▁busily	-8472
▁canvas	-8473
▁caving	-8474
▁cavity	-8475
▁checks	-8476
▁chilly	-8477
▁cloudy	-8478
▁colder	-8479
▁commer	-8480
▁commod	-8481
▁compos	-8482
▁concav	-8483
▁concur	-8484
▁consid	-8485
▁cooked	-8486
▁corpor	-8487
▁corpse	-8488
▁credit	-8489
▁crying	-8490
▁curren	-8491
▁darned	-8492
▁dearly	-8493
▁debate	-8494
▁decide	-8495
▁deduct	-8496
▁detach	-8497
▁dispel	-8498
▁diverg	-8499
Ho	-8500
--_	-8501
.3.	-8502
:--	-8503
AIR	-8504
Def	-8505
IRL	-8506
PES	-8507
eep	-8508
uds	-8509
▁26	-8510
▁Ta	-8511
▁cy	-8512
▁eh	-8513
Five	-8514
IPES	-8515
IRLS	-8516
LING	-8517
fres	-8518
gled	-8519
osal	-8520
osom	-8521
poss	-8522
uand	-8523
▁Add	-8524
▁Hun	-8525
▁MEN	-8526
▁Pol	-8527
▁ped	-8528
Earth	-8529
enate	-8530
gledy	-8531
ilate	-8532
urbed	-8533
▁Band	-8534
▁Bern	-8535
▁PAIR	-8536
▁Taav	-8537
▁dish	-8538
▁gild	-8539
▁mode	-8540
▁sigh	-8541
▁span	-8542
▁veil	-8543
▁Again	-8544
▁Eight	-8545
▁GIRLS	-8546
▁PIPES	-8547
▁TRACK	-8548
▁Taavi	-8549
▁bosom	-8550
▁grief	-8551
▁lease	-8552
▁madly	-8553
▁ruddy	-8554
estions	-8555
evident	-8556
▁Hunter	-8557
▁Nearly	-8558
▁Wouldn	-8559
▁dogmat	-8560
▁donkey	-8561
▁duties	-8562
▁eating	-8563
▁elapse	-8564
▁emphat	-8565
▁encomp	-8566
▁endure	-8567
▁enrapt	-8568
▁entire	-8569
▁enumer	-8570
▁errors	-8571
▁exempt	-8572
▁expend	-8573
▁exuber	-8574
▁fading	-8575
▁failed	-8576
▁faster	-8577
▁feeble	-8578
▁firing	-8579
▁fitful	-8580
▁fluent	-8581
▁folded	-8582
▁frames	-8583
▁garden	-8584
▁giants	-8585
▁golden	-8586
▁grains	-8587
▁groups	-8588
▁hanged	-8589
▁hazard	-8590
▁helped	-8591
▁hinges	-8592
▁histor	-8593
▁honors	-8594
▁hoping	-8595
▁hungry	-8596
▁immers	-8597
▁imperf	-8598
▁incand	-8599
.2	-8600
.2.	-8601
Sol	-8602
_?"	-8603
reg	-8604
urt	-8605
Curt	-8606
Will	-8607
blem	-8608
fted	-8609
onet	-8610
osse	-8611
qued	-8612
uary	-8613
▁DID	-8614
▁IND	-8615
▁Mil	-8616
▁NOT	-8617
▁Sir	-8618
▁Tem	-8619
▁dil	-8620
▁fil	-8621
▁san	-8622
▁tow	-8623
dated	-8624
elene	-8625
inter	-8626
oneta	-8627
those	-8628
▁City	-8629
▁Hang	-8630
▁Hugo	-8631
▁TIME	-8632
▁XIII	-8633
▁area	-8634
▁barb	-8635
▁bill	-8636
▁hiss	-8637
▁orth	-8638
▁stro	-8639
▁stup	-8640
▁vibr	-8641
▁vill	-8642
ammoth	-8643
vation	-8644
▁Below	-8645
▁Rosse	-8646
▁bells	-8647
▁crawl	-8648
▁music	-8649
▁paths	-8650
▁skins	-8651
▁terra	-8652
▁vocal	-8653
Curtius	-8654
▁Boneta	-8655
▁HULLAB	-8656
▁barbar	-8657
▁ingenu	-8658
▁inhosp	-8659
▁irradi	-8660
▁keener	-8661
▁keenly	-8662
▁laught	-8663
▁lesson	-8664
▁levity	-8665
▁marrow	-8666
▁meadow	-8667
▁member	-8668
▁models	-8669
▁motive	-8670
▁mutter	-8671
▁neatly	-8672
▁nerves	-8673
▁nicely	-8674
▁nicety	-8675
▁notion	-8676
▁obeyed	-8677
▁occurs	-8678
▁oppose	-8679
▁orbits	-8680
▁oversp	-8681
▁packed	-8682
▁padded	-8683
▁pallor	-8684
▁partly	-8685
▁pedest	-8686
▁phases	-8687
▁phosph	-8688
▁prayer	-8689
▁proves	-8690
▁raging	-8691
▁rapids	-8692
▁realms	-8693
▁rebuff	-8694
▁recept	-8695
▁reconc	-8696
▁rejoic	-8697
▁rememb	-8698
▁remove	-8699
-8	-8700
.6	-8701
38	-8702
4.	-8703
-8.	-8704
.4.	-8705
.6.	-8706
Acc	-8707
kay	-8708
ody	-8709
tes	-8710
uro	-8711
urs	-8712
▁Ca	-8713
▁IX	-8714
▁JO	-8715
▁MY	-8716
▁PH	-8717
esar	-8718
▁501	-8719
▁Map	-8720
▁Men	-8721
▁XIV	-8722
▁pea	-8723
▁pig	-8724
EMENT	-8725
inned	-8726
while	-8727
▁501(	-8728
▁Ball	-8729
▁Expl	-8730
▁TURN	-8731
▁Will	-8732
▁echo	-8733
▁file	-8734
▁sore	-8735
▁stat	-8736
▁whim	-8737
457-8.	-8738
yright	-8739
▁DISTR	-8740
▁INVIS	-8741
▁acted	-8742
▁alike	-8743
▁ordin	-8744
▁parad	-8745
▁resem	-8746
uration	-8747
▁Brooke	-8748
▁Caesar	-8749
▁Little	-8750
▁Madame	-8751
▁Nectar	-8752
▁actors	-8753
▁barrel	-8754
▁fascin	-8755
▁feared	-8756
▁lonely	-8757
▁repast	-8758
▁repeat	-8759
▁resusc	-8760
▁revels	-8761
▁rigged	-8762
▁rivets	-8763
▁rocket	-8764
▁royalt	-8765
▁rueful	-8766
▁rushed	-8767
▁safest	-8768
▁safety	-8769
▁salute	-8770
▁saving	-8771
▁settle	-8772
▁shaded	-8773
▁shades	-8774
▁shapes	-8775
▁shared	-8776
▁shrewd	-8777
▁shriek	-8778
▁sister	-8779
▁sketch	-8780
▁smiled	-8781
▁smiles	-8782
▁source	-8783
▁sourer	-8784
▁spider	-8785
▁spirit	-8786
▁squall	-8787
▁stands	-8788
▁starts	-8789
▁steady	-8790
▁sticks	-8791
▁strain	-8792
▁submit	-8793
▁suffer	-8794
▁sunset	-8795
▁superl	-8796
▁survey	-8797
▁switch	-8798
▁tapest	-8799
5.	-8800
Sc	-8801
.5.	-8802
Cle	-8803
Ind	-8804
Yet	-8805
cca	-8806
ean	-8807
fat	-8808
imm	-8809
irc	-8810
sur	-8811
yst	-8812
▁EY	-8813
▁SU	-8814
ball	-8815
held	-8816
vert	-8817
▁EYE	-8818
▁Ten	-8819
▁aim	-8820
▁una	-8821
arget	-8822
iably	-8823
odman	-8824
sever	-8825
thest	-8826
umble	-8827
valve	-8828
▁Ever	-8829
▁Give	-8830
▁LIFT	-8831
▁ONLY	-8832
▁ably	-8833
▁guns	-8834
▁owns	-8835
▁oyst	-8836
▁wood	-8837
UEDUCT	-8838
ortune	-8839
ranean	-8840
usions	-8841
▁April	-8842
▁Other	-8843
▁Roris	-8844
▁error	-8845
▁opera	-8846
▁plant	-8847
▁punct	-8848
▁shaky	-8849
▁staff	-8850
▁stops	-8851
▁straw	-8852
COVERED	-8853
ancanus	-8854
ensical	-8855
iculous	-8856
velling	-8857
▁Nobody	-8858
▁Surely	-8859
▁abused	-8860
▁allows	-8861
▁ascend	-8862
▁beheld	-8863
▁driver	-8864
▁rubber	-8865
▁served	-8866
▁smoked	-8867
▁target	-8868
▁terror	-8869
▁tested	-8870
▁theirs	-8871
▁thirst	-8872
▁toasts	-8873
▁trails	-8874
▁trains	-8875
▁tremor	-8876
▁underw	-8877
▁undist	-8878
▁unlike	-8879
▁vainly	-8880
▁wadded	-8881
▁waited	-8882
▁wander	-8883
▁waning	-8884
▁wholly	-8885
▁wicked	-8886
▁widest	-8887
▁wished	-8888
▁worlds	-8889
Alphonse	-8890
FORTABLE	-8891
Farewell	-8892
Huyghens	-8893
Pouillet	-8894
UESTIONS	-8895
aintance	-8896
aneously	-8897
asonable	-8898
beration	-8899
ei	-8900
ju	-8901
/10	-8902
Gro	-8903
ado	-8904
bog	-8905
his	-8906
ots	-8907
oul	-8908
reb	-8909
▁"1	-8910
▁Cy	-8911
Stop	-8912
adle	-8913
asus	-8914
ctic	-8915
erra	-8916
icon	-8917
roid	-8918
▁GAS	-8919
▁ITS	-8920
▁Rue	-8921
▁bee	-8922
▁bid	-8923
▁nut	-8924
Terra	-8925
force	-8926
ician	-8927
might	-8928
rical	-8929
uding	-8930
▁Kent	-8931
▁chat	-8932
▁heed	-8933
▁hill	-8934
▁leis	-8935
▁lieu	-8936
▁sout	-8937
▁ting	-8938
ENNIAL	-8939
ecting	-8940
formed	-8941
ivered	-8942
▁COLDS	-8943
▁Kalju	-8944
▁brand	-8945
▁disad	-8946
▁drank	-8947
▁gaily	-8948
▁grate	-8949
▁joint	-8950
▁journ	-8951
▁lever	-8952
▁plung	-8953
▁steps	-8954
Whereas	-8955
ipelago	-8956
▁Scotch	-8957
▁ending	-8958
▁frenzy	-8959
▁mystic	-8960
▁plunge	-8961
▁warmly	-8962
▁wheels	-8963
ellation	-8964
erfectly	-8965
foreseen	-8966
imcracks	-8967
movement	-8968
nonymous	-8969
olidated	-8970
orations	-8971
powering	-8972
question	-8973
ruptured	-8974
stricken	-8975
tricably	-8976
uestions	-8977
ughtered	-8978
▁Adviser	-8979
▁Billsby	-8980
▁CONVERS	-8981
▁CORNELL	-8982
▁Chapuis	-8983
▁Christm	-8984
▁Clearly	-8985
▁Current	-8986
▁DAMAGES	-8987
▁DROPPED	-8988
▁Descart	-8989
▁ESCAPED	-8990
▁Eternal	-8991
▁FIFTEEN	-8992
▁FISHING	-8993
▁Falling	-8994
▁Farther	-8995
▁Finally	-8996
▁HEMISPH	-8997
▁ILLUSTR	-8998
▁IMMENSE	-8999
1.	-9000
4,	-9001
6,	-9002
72	-9003
?'	-9004
_'	-9005
oe	-9006
Ast	-9007
Cut	-9008
Was	-9009
bes	-9010
eed	-9011
ift	-9012
▁Af	-9013
IBUT	-9014
Mars	-9015
full	-9016
hold	-9017
ises	-9018
▁Cor	-9019
▁bon	-9020
▁cit	-9021
▁fed	-9022
▁ink	-9023
▁lur	-9024
▁pet	-9025
▁sed	-9026
▁sha	-9027
going	-9028
onius	-9029
oston	-9030
winds	-9031
▁2400	-9032
▁Inte	-9033
▁Land	-9034
▁Mary	-9035
▁Midd	-9036
▁beet	-9037
▁dawn	-9038
▁depl	-9039
▁fade	-9040
▁mast	-9041
▁nose	-9042
▁quad	-9043
▁save	-9044
▁tall	-9045
▁tore	-9046
▁tree	-9047
genial	-9048
▁based	-9049
▁logic	-9050
▁lurid	-9051
▁poles	-9052
Neither	-9053
▁ENOUGH	-9054
▁Exceed	-9055
▁ceased	-9056
▁govern	-9057
▁quiver	-9058
▁reigns	-9059
▁versat	-9060
Pyrenees	-9061
balanced	-9062
▁Imagine	-9063
▁Jovians	-9064
▁Lohrman	-9065
▁Looking	-9066
▁Mabille	-9067
▁Measure	-9068
▁Mercury	-9069
▁NEUTRAL	-9070
▁PACIFIC	-9071
▁Produce	-9072
▁Pullman	-9073
▁Raphael	-9074
▁Rapidly	-9075
▁Royalty	-9076
▁Thunder	-9077
▁Vanilla	-9078
▁WARRANT	-9079
▁Without	-9080
▁absorbs	-9081
▁adopted	-9082
▁advance	-9083
▁alarmed	-9084
▁almanac	-9085
▁analogy	-9086
▁angrily	-9087
▁angular	-9088
▁anxious	-9089
▁applied	-9090
▁article	-9091
▁aspects	-9092
▁avidity	-9093
▁awaited	-9094
▁barking	-9095
▁baromet	-9096
▁beaming	-9097
▁belongs	-9098
▁benefit	-9099
!!	-9100
!'	-9101
,'	-9102
/4	-9103
/6	-9104
25	-9105
MS	-9106
gu	-9107
ICH	-9108
ads	-9109
eer	-9110
him	-9111
osc	-9112
tle	-9113
yer	-9114
▁IV	-9115
▁OX	-9116
Wait	-9117
away	-9118
erie	-9119
even	-9120
lest	-9121
rain	-9122
▁Ple	-9123
▁XVI	-9124
▁cho	-9125
▁siz	-9126
▁unl	-9127
▁vom	-9128
Could	-9129
gives	-9130
icken	-9131
isher	-9132
▁Megg	-9133
▁VIII	-9134
▁XXIV	-9135
▁dare	-9136
▁gets	-9137
▁song	-9138
▁worn	-9139
Hardly	-9140
issimo	-9141
oneyed	-9142
▁Madre	-9143
▁Three	-9144
▁ebull	-9145
▁freed	-9146
▁speck	-9147
▁vague	-9148
western	-9149
▁25,000	-9150
▁Desert	-9151
▁Jardin	-9152
▁OXYGEN	-9153
▁TAKING	-9154
▁accent	-9155
▁breeze	-9156
▁circus	-9157
▁closer	-9158
▁pocket	-9159
▁rhythm	-9160
▁specks	-9161
▁speech	-9162
▁traced	-9163
lessness	-9164
▁Gruithu	-9165
▁Stripes	-9166
▁blunder	-9167
▁boiling	-9168
▁borders	-9169
▁bullets	-9170
▁cadence	-9171
▁calling	-9172
▁captain	-9173
▁chances	-9174
▁checked	-9175
▁chiefly	-9176
▁chilled	-9177
▁closest	-9178
▁clothed	-9179
▁combine	-9180
▁compass	-9181
▁confess	-9182
▁consist	-9183
▁console	-9184
▁content	-9185
▁control	-9186
▁convert	-9187
▁council	-9188
▁cracked	-9189
▁created	-9190
▁crimson	-9191
▁crowned	-9192
▁curving	-9193
▁damages	-9194
▁deliver	-9195
▁densely	-9196
▁denying	-9197
▁desired	-9198
▁diamond	-9199
5,	-9200
65	-9201
BL	-9202
Un	-9203
WH	-9204
WN	-9205
de	-9206
sk	-9207
sy	-9208
Car	-9209
Old	-9210
▁Em	-9211
▁va	-9212
RECT	-9213
aded	-9214
cted	-9215
east	-9216
oder	-9217
ulfs	-9218
▁875	-9219
▁HIS	-9220
▁fra	-9221
▁gir	-9222
▁job	-9223
▁Arab	-9224
▁Cape	-9225
▁ONCE	-9226
▁conj	-9227
▁melt	-9228
▁plum	-9229
▁rect	-9230
▁stim	-9231
olding	-9232
ulture	-9233
▁chest	-9234
▁civil	-9235
▁email	-9236
▁phase	-9237
▁sheep	-9238
▁skies	-9239
▁union	-9240
▁verge	-9241
Purbach	-9242
erences	-9243
rimaldi	-9244
suppose	-9245
▁candor	-9246
▁deaden	-9247
▁dismal	-9248
▁fringe	-9249
▁organs	-9250
▁pitted	-9251
▁tantal	-9252
▁wilder	-9253
intellig	-9254
▁alleged	-9255
▁audibly	-9256
▁banners	-9257
▁caustic	-9258
▁cleaved	-9259
▁diction	-9260
▁dignity	-9261
▁discern	-9262
▁doubled	-9263
▁dryness	-9264
▁elapsed	-9265
▁elegant	-9266
▁emanate	-9267
▁enables	-9268
▁erratic	-9269
▁escapes	-9270
▁excused	-9271
▁exhilar	-9272
▁extract	-9273
▁fainter	-9274
▁faintly	-9275
▁fashion	-9276
▁federal	-9277
▁fishing	-9278
▁flatter	-9279
▁flights	-9280
▁flooded	-9281
▁flowers	-9282
▁flowing	-9283
▁flushed	-9284
▁flutter	-9285
▁folding	-9286
▁foreign	-9287
▁formats	-9288
▁founded	-9289
▁glaring	-9290
▁gleamed	-9291
▁granite	-9292
▁grooved	-9293
▁grooves	-9294
▁guessed	-9295
▁handing	-9296
▁harbors	-9297
▁heading	-9298
▁heating	-9299
▁PG	-9300
▁verify	-9301
▁heavens	-9302
▁heavier	-9303
▁heavily	-9304
▁heeding	-9305
▁hissing	-9306
▁hollows	-9307
▁hopeful	-9308
▁hostile	-9309
▁humming	-9310
▁hurrahs	-9311
▁illustr	-9312
▁imitate	-9313
▁imposed	-9314
▁induced	-9315
▁infused	-9316
▁injured	-9317
▁inverse	-9318
▁issuing	-9319
▁jotting	-9320
▁judging	-9321
▁killing	-9322
▁lateral	-9323
▁leagues	-9324
▁lecture	-9325
▁limited	-9326
▁listens	-9327
▁longest	-9328
▁lustily	-9329
▁majesty	-9330
▁manners	-9331
▁maximum	-9332
▁melting	-9333
▁mercury	-9334
▁mistake	-9335
▁monster	-9336
▁motions	-9337
▁muscles	-9338
▁nodding	-9339
▁novelty	-9340
▁nucleus	-9341
▁numbers	-9342
▁opposed	-9343
▁oysters	-9344
▁panting	-9345
▁partake	-9346
▁passion	-9347
▁peacock	-9348
▁perigee	-9349
▁persist	-9350
▁phrases	-9351
▁pillars	-9352
▁planted	-9353
▁prairie	-9354
▁pressed	-9355
▁printed	-9356
▁private	-9357
▁product	-9358
▁profile	-9359
▁profund	-9360
▁quarrel	-9361
▁radiate	-9362
▁railway	-9363
▁regards	-9364
▁respond	-9365
▁reticul	-9366
▁retired	-9367
▁reveals	-9368
▁reverie	-9369
▁reverse	-9370
▁revised	-9371
▁richest	-9372
▁roasted	-9373
▁saluted	-9374
▁satisfy	-9375
▁savants	-9376
▁scenery	-9377
▁schools	-9378
▁screwed	-9379
▁seasons	-9380
▁section	-9381
▁sentent	-9382
▁service	-9383
▁seventh	-9384
▁seventy	-9385
▁shading	-9386
▁shadowy	-9387
▁shallow	-9388
▁shining	-9389
▁shudder	-9390
▁shutter	-9391
▁simpler	-9392
▁sneered	-9393
▁snicker	-9394
▁society	-9395
▁sockets	-9396
▁solicit	-9397
▁spectre	-9398
▁spoiled	-9399
▁spreads	-9400
▁stately	-9401
▁stifled	-9402
▁stirred	-9403
▁stooped	-9404
▁stoutly	-9405
▁studied	-9406
▁stunned	-9407
▁stunted	-9408
▁suspend	-9409
▁sustain	-9410
▁swaying	-9411
▁sweetly	-9412
▁tangent	-9413
▁telling	-9414
▁tension	-9415
▁testing	-9416
▁theatre	-9417
▁thinner	-9418
▁thirdly	-9419
▁tightly	-9420
▁touched	-9421
▁treated	-9422
▁trusted	-9423
▁unaided	-9424
▁unmitig	-9425
▁vessels	-9426
▁village	-9427
▁visited	-9428
▁wasting	-9429
▁whining	-9430
▁whisper	-9431
▁willing	-9432
▁wishing	-9433
▁younger	-9434
Baltimore	-9435
Gentlemen	-9436
Hercynian	-9437
Precisely	-9438
Satellite	-9439
Wonderful	-9440
aposelene	-9441
ccessible	-9442
ectionate	-9443
haustible	-9444
ibilities	-9445
millionth	-9446
necessary	-9447
orrigible	-9448
possessed	-9449
ributions	-9450
risonment	-9451
satellite	-9452
▁16457-8.	-9453
▁Calculus	-9454
▁Colorado	-9455
▁Confound	-9456
▁FAREWELL	-9457
▁Fourrier	-9458
▁GLIMPSES	-9459
▁Integral	-9460
▁Japanese	-9461
▁Kentucky	-9462
▁Latitude	-9463
▁Lilliput	-9464
▁Mountain	-9465
▁Philosop	-9466
▁Produced	-9467
▁Rainbows	-9468
▁Regnault	-9469
▁Reporter	-9470
▁SOLUTION	-9471
▁SOUTHERN	-9472
▁Serenity	-9473
▁Southern	-9474
▁Swallows	-9475
▁Tempests	-9476
▁WARRANTY	-9477
▁Whenever	-9478
▁abruptly	-9479
▁acclimat	-9480
▁acquired	-9481
▁activity	-9482
▁aeronaut	-9483
▁affright	-9484
▁agglomer	-9485
▁almanacs	-9486
▁anchored	-9487
▁applause	-9488
▁ascribed	-9489
▁asserted	-9490
▁attempts	-9491
▁attested	-9492
▁audience	-9493
▁auspices	-9494
▁authorit	-9495
▁avoiding	-9496
▁bearings	-9497
▁beetling	-9498
▁befallen	-9499
▁believed	-9500
▁betrayed	-9501
▁blackest	-9502
▁bleeding	-9503
▁branches	-9504
▁breakers	-9505
▁bustling	-9506
▁candidly	-9507
▁cataclys	-9508
▁cheerily	-9509
▁circuses	-9510
▁clenched	-9511
▁coincide	-9512
▁compiled	-9513
▁computer	-9514
▁confused	-9515
▁coursing	-9516
▁crawling	-9517
▁creature	-9518
▁currents	-9519
▁declared	-9520
▁delicate	-9521
▁demanded	-9522
▁deserves	-9523
▁desolate	-9524
▁detailed	-9525
▁disposal	-9526
▁disputed	-9527
▁disputes	-9528
▁disquiet	-9529
▁dividing	-9530
▁division	-9531
▁doubtful	-9532
▁drawling	-9533
▁drearier	-9534
▁duration	-9535
▁eatables	-9536
▁effected	-9537
▁elements	-9538
▁elevated	-9539
▁elliptic	-9540
▁emotions	-9541
▁engineer	-9542
▁entrance	-9543
▁equation	-9544
▁everyone	-9545
▁excluded	-9546
▁exertion	-9547
▁exploded	-9548
▁familiar	-9549
▁feminine	-9550
▁feverish	-9551
▁finished	-9552
▁fireball	-9553
▁fleeting	-9554
▁flinging	-9555
▁flourish	-9556
▁forcible	-9557
▁forcibly	-9558
▁forehead	-9559
▁foremost	-9560
▁forwards	-9561
▁furrowed	-9562
▁furthest	-9563
▁glaciers	-9564
▁glancing	-9565
▁gleaming	-9566
▁gloomily	-9567
▁greenish	-9568
▁headlong	-9569
▁heedless	-9570
▁hilarity	-9571
▁hydrogen	-9572
▁incredul	-9573
▁indulged	-9574
▁industry	-9575
▁infinity	-9576
▁inhabits	-9577
▁insignif	-9578
▁instruct	-9579
▁intently	-9580
▁inverted	-9581
▁involved	-9582
▁joyfully	-9583
▁junction	-9584
▁laboring	-9585
▁laughter	-9586
▁lifeless	-9587
▁likewise	-9588
▁locality	-9589
▁loftiest	-9590
▁lustrous	-9591
▁majority	-9592
▁managing	-9593
▁meetings	-9594
▁mischief	-9595
▁moderate	-9596
▁molehill	-9597
▁murmured	-9598
▁mutually	-9599
▁mytholog	-9600
▁narrower	-9601
▁national	-9602
▁nearness	-9603
▁nebulous	-9604
▁needless	-9605
▁negative	-9606
▁nestling	-9607
▁nineteen	-9608
▁objected	-9609
▁occupies	-9610
▁offering	-9611
▁oftenest	-9612
▁openings	-9613
▁piercing	-9614
▁pitiless	-9615
▁plateaus	-9616
▁platform	-9617
▁ploughed	-9618
▁pressing	-9619
▁promised	-9620
▁propound	-9621
▁protuber	-9622
▁pursuing	-9623
▁quarters	-9624
▁radiance	-9625
▁rarefied	-9626
▁reaction	-9627
▁readable	-9628
▁reappear	-9629
▁recalled	-9630
▁recourse	-9631
▁referred	-9632
▁regarded	-9633
▁rejected	-9634
▁relation	-9635
▁relative	-9636
▁reliable	-9637
▁replaced	-9638
▁replying	-9639
▁research	-9640
▁resemble	-9641
▁resisted	-9642
▁resolved	-9643
▁resource	-9644
▁resuming	-9645
▁rewarded	-9646
▁ruptured	-9647
▁savagely	-9648
▁scarcely	-9649
▁screamed	-9650
▁severely	-9651
▁sharpest	-9652
▁shedding	-9653
▁shoulder	-9654
▁sighting	-9655
▁silently	-9656
▁skimming	-9657
▁sleeping	-9658
▁slumbers	-9659
▁solemnly	-9660
▁spangled	-9661
▁stagnant	-9662
▁standard	-9663
▁stomachs	-9664
▁stopping	-9665
▁streamed	-9666
▁stricken	-9667
▁suffered	-9668
▁surfaces	-9669
▁sweeping	-9670
▁sweetest	-9671
▁syllable	-9672
▁sympathy	-9673
▁theories	-9674
▁throttle	-9675
▁tranquil	-9676
▁transfer	-9677
▁transmit	-9678
▁uniforms	-9679
▁unmistak	-9680
▁unpreced	-9681
▁upheaval	-9682
▁valuable	-9683
▁vicinity	-9684
▁vigorous	-9685
▁vividest	-9686
▁watchers	-9687
▁whirring	-9688
▁withdraw	-9689
▁wormwood	-9690
Everything	-9691
Spillikins	-9692
Theophilus	-9693
dignagians	-9694
istributed	-9695
opposition	-9696
periselene	-9697
rehensions	-9698
▁Astronomy	-9699
▁Australia	-9700
▁Christmas	-9701
▁Cimmerian	-9702
▁DISTRIBUT	-9703
▁Descartes	-9704
▁Directors	-9705
▁Donations	-9706
▁Egyptians	-9707
▁Esterhazy	-9708
▁Everybody	-9709
▁Fertility	-9710
▁Greenland	-9711
▁INVISIBLE	-9712
▁Institute	-9713
▁MOUNTAINS	-9714
▁OBSERVERS	-9715
▁Precisely	-9716
▁SPLITTING	-9717
▁Selenitic	-9718
▁abandoned	-9719
▁abundance	-9720
▁accepting	-9721
▁addresses	-9722
▁admirable	-9723
▁admirably	-9724
▁advancing	-9725
▁agreeable	-9726
▁amazement	-9727
▁appearing	-9728
▁architect	-9729
▁artillery	-9730
▁assembled	-9731
▁attending	-9732
▁avalanche	-9733
▁backwards	-9734
▁barometer	-9735
▁blackened	-9736
▁brightest	-9737
▁buildings	-9738
▁clearness	-9739
▁clustered	-9740
▁collapsed	-9741
▁colorless	-9742
▁committed	-9743
▁commotion	-9744
▁community	-9745
▁compasses	-9746
▁completed	-9747
▁computers	-9748
▁condensed	-9749
▁confessed	-9750
▁confusion	-9751
▁conscient	-9752
▁considers	-9753
▁consisted	-9754
▁constitut	-9755
▁contrived	-9756
▁conundrum	-9757
▁convexity	-9758
▁decorated	-9759
▁delirious	-9760
▁describes	-9761
▁despaired	-9762
▁desultory	-9763
▁detailing	-9764
▁divergent	-9765
▁doubtless	-9766
▁dreariest	-9767
▁effecting	-9768
▁eightieth	-9769
▁elongated	-9770
▁embarrass	-9771
▁emergency	-9772
▁employees	-9773
▁endurable	-9774
▁enkindled	-9775
▁entangled	-9776
▁evaporate	-9777
▁everybody	-9778
▁exactness	-9779
▁exceeding	-9780
▁expanding	-9781
▁expecting	-9782
▁exploring	-9783
▁exuberant	-9784
▁faculties	-9785
▁fastening	-9786
▁financial	-9787
▁flattered	-9788
▁functions	-9789
▁generated	-9790
▁gibbering	-9791
▁gimcracks	-9792
▁grappling	-9793
▁gratified	-9794
▁habitable	-9795
▁inability	-9796
▁inconveni	-9797
▁incorrect	-9798
▁ingenuity	-9799
▁inquiries	-9800
▁inscribed	-9801
▁inspected	-9802
▁inspiring	-9803
▁interests	-9804
▁invention	-9805
▁irritated	-9806
▁laterally	-9807
▁latitudes	-9808
▁lightened	-9809
▁listening	-9810
▁locations	-9811
▁magnified	-9812
▁magnitude	-9813
▁memorable	-9814
▁mentioned	-9815
▁merriment	-9816
▁microcosm	-9817
▁molecular	-9818
▁momentary	-9819
▁moonlight	-9820
▁multiplic	-9821
▁noiseless	-9822
▁objection	-9823
▁opponents	-9824
▁parabolas	-9825
▁penetrate	-9826
▁peninsula	-9827
▁perplexed	-9828
▁plausible	-9829
▁pomposity	-9830
▁precincts	-9831
▁precision	-9832
▁preferred	-9833
▁preserved	-9834
▁prevented	-9835
▁promoting	-9836
▁propriety	-9837
▁protected	-9838
▁pulsation	-9839
▁purifying	-9840
▁pyramidal	-9841
▁realizing	-9842
▁reasoning	-9843
▁reduction	-9844
▁referring	-9845
▁regretted	-9846
▁rejoicing	-9847
▁remaining	-9848
▁repeating	-9849
▁requiring	-9850
▁requisite	-9851
▁resembles	-9852
▁respected	-9853
▁royalties	-9854
▁saturated	-9855
▁scattered	-9856
▁searching	-9857
▁semblance	-9858
▁sentences	-9859
▁shivering	-9860
▁sidewalks	-9861
▁signalled	-9862
▁similarly	-9863
▁societies	-9864
▁softening	-9865
▁soundings	-9866
▁southward	-9867
▁specified	-9868
▁splendors	-9869
▁sprinkled	-9870
▁stationed	-9871
▁strangest	-9872
▁strongest	-9873
▁struggles	-9874
▁surpassed	-9875
▁surpasses	-9876
▁terrestri	-9877
▁tolerable	-9878
▁tolerably	-9879
▁unbounded	-9880
▁uncomfort	-9881
▁undefined	-9882
▁underwent	-9883
▁undivided	-9884
▁unearthly	-9885
▁universal	-9886
▁unrolling	-9887
▁unscrewed	-9888
▁unselfish	-9889
▁ventilate	-9890
▁veracious	-9891
▁vineyards	-9892
▁vivifying	-9893
▁willingly	-9894
▁withstand	-9895
Alpetragius	-9896
conjunction	-9897
considering	-9898
▁CENTENNIAL	-9899
▁Columbiads	-9900
▁DEMONIACAL	-9901
▁DISCOVERED	-9902
▁Englishman	-9903
▁HEMISPHERE	-9904
▁HULLABALOO	-9905
▁IMPOSSIBLE	-9906
▁LANDSCAPES	-9907
▁MacNicholl	-9908
▁Sacramento	-9909
▁Scientific	-9910
▁THEMSELVES	-9911
▁WARRANTIES	-9912
▁accomplish	-9913
▁addressing	-9914
▁adventures	-9915
▁articulate	-9916
▁assertions	-9917
▁assistants	-9918
▁attempting	-9919
▁beefsteaks	-9920
▁beforehand	-9921
▁boundaries	-9922
▁breathless	-9923
▁capricious	-9924
▁	-9925
e	-9926
t	-9927
a	-9928
o	-9929
n	-9930
i	-9931
r	-9932
s	-9933
h	-9934
l	-9935
d	-9936
c	-9937
u	-9938
f	-9939
m	-9940
y	-9941
g	-9942
w	-9943
,	-9944
p	-9945
b	-9946
v	-9947
"	-9948
.	-9949
k	-9950
T	-9951
I	-9952
_	-9953
A	-9954
'	-9955
!	-9956
M	-9957
B	-9958
-	-9959
x	-9960
E	-9961
C	-9962
S	-9963
j	-9964
N	-9965
P	-9966
H	-9967
?	-9968
W	-9969
q	-9970
;	-9971
O	-9972
L	-9973
F	-9974
0	-9975
R	-9976
z	-9977
D	-9978
G	-9979
1	-9980
Y	-9981
:	-9982
U	-9983
2	-9984
5	-9985
3	-9986
4	-9987
V	-9988
J	-9989
6	-9990
8	-9991
7	-9992
(	-9993
)	-9994
/	-9995
X	-9996
*	-9997
K	-9998
